<unk>	0
<s>	0
</s>	0
,	-3.83953
의	-4.0594
▁	-4.0896
.	-4.3122
에	-4.4278
는	-4.46616
을	-4.55075
이	-4.57468
은	-4.70246
)	-4.79731
가	-4.80441
(	-4.81704
년	-4.82487
?	-4.86238
를	-4.90363
로	-5.03355
에서	-5.21741
도	-5.34904
과	-5.38649
▁이	-5.44885
으로	-5.45393
월	-5.52901
인	-5.57219
한	-5.57294
와	-5.60428
▁수	-5.67804
▁있다	-5.68044
고	-5.68238
일	-5.6969
이다	-5.85712
지	-5.91524
▁네	-6.02848
▁1	-6.06186
하고	-6.11401
▁2	-6.11862
기	-6.13008
▁그	-6.17008
하는	-6.21852
▁3	-6.29554
시	-6.30328
다	-6.30838
만	-6.31185
사	-6.3227
했다	-6.32376
▁한	-6.34056
해	-6.35689
하였다	-6.37458
자	-6.38981
서	-6.39355
리	-6.39727
나	-6.4207
▁제	-6.44875
▁있는	-6.45705
하여	-6.47714
스	-6.51818
할	-6.52788
어	-6.56601
수	-6.5702
▁4	-6.58769
▁"	-6.64956
라	-6.66095
대	-6.66973
"	-6.68468
▁5	-6.68563
▁중	-6.72681
요	-6.73025
되었다	-6.73345
된	-6.74177
성	-6.7453
'	-6.76124
게	-6.76309
적	-6.77659
주	-6.78792
면	-6.81911
▁《	-6.82961
▁시	-6.84683
▁전	-6.87243
▁사	-6.88021
▁6	-6.89604
▁10	-6.89705
원	-6.91093
동	-6.91237
트	-6.91284
▁안	-6.91668
▁'	-6.92095
부	-6.92651
아	-6.93655
한다	-6.93777
산	-6.94161
장	-6.94419
전	-6.94453
▁두	-6.94526
▁후	-6.94693
상	-6.95346
화	-6.95391
미	-6.97484
-	-6.98206
정	-6.99279
▁7	-7.00958
에게	-7.01353
진	-7.01688
▁8	-7.01884
▁오	-7.02697
▁-	-7.03399
▁다	-7.03555
▁주	-7.03793
▁아	-7.03945
보	-7.04071
▁가	-7.04095
▁등	-7.04926
드	-7.05599
세	-7.05968
오	-7.0621
마	-7.06655
하게	-7.0713
치	-7.07232
에는	-7.07663
》	-7.083
비	-7.08435
구	-7.08917
소	-7.09969
르	-7.10176
·	-7.10376
명	-7.11038
▁한다	-7.11348
년에	-7.12397
▁9	-7.12954
야	-7.13026
▁때	-7.13366
개	-7.13716
▁대	-7.1376
▁더	-7.1418
▁신	-7.14354
제	-7.14864
니	-7.14919
되어	-7.15052
적인	-7.15274
▁같은	-7.15318
차	-7.15349
▁있어요	-7.15829
우	-7.16163
▁다른	-7.17282
▁그는	-7.17357
신	-7.17899
▁이후	-7.18145
▁되었다	-7.19895
조	-7.20066
선	-7.2007
타	-7.20567
▁정	-7.20991
▁거	-7.21932
▁12	-7.22341
▁(	-7.22888
▁고	-7.23173
▁해	-7.23527
▁원	-7.23593
까지	-7.24391
군	-7.24741
에서는	-7.25432
▁대한	-7.2609
s	-7.26367
회	-7.27744
하	-7.28799
▁유	-7.29128
하기	-7.29425
당	-7.29493
▁일	-7.30054
노	-7.31726
▁비	-7.32892
),	-7.33159
용	-7.3321
2	-7.33956
▁및	-7.34081
▁18	-7.34198
▁지	-7.34237
위	-7.34929
▁있나요	-7.35265
호	-7.35433
▁구	-7.36097
▁부	-7.36178
이며	-7.37509
▁11	-7.37512
들이	-7.37826
▁함께	-7.38889
분	-7.39143
문	-7.39144
▁기	-7.39689
파	-7.40124
라고	-7.40213
▁또한	-7.40559
▁보	-7.40674
▁몇	-7.41321
▁자	-7.41794
천	-7.42253
▁내	-7.42753
무	-7.43158
▁미	-7.43697
▁세	-7.44171
▁위해	-7.4423
▁성	-7.44252
라는	-7.44381
레	-7.4456
▁하	-7.44563
▁마	-7.44822
들	-7.45494
관	-7.46067
경	-7.46184
카	-7.47066
크	-7.473
실	-7.47539
국	-7.47551
▁조	-7.47614
▁소	-7.47926
들은	-7.48017
▁~	-7.4834
적으로	-7.4863
모	-7.49051
1	-7.49258
m	-7.49676
▁때문에	-7.49688
토	-7.49717
중	-7.49946
▁공	-7.5136
▁도	-7.51473
루	-7.5282
이나	-7.5319
하지	-7.53364
계	-7.53894
▁상	-7.55444
프	-7.55444
공	-7.55952
▁좀	-7.56824
식	-7.56926
하며	-7.57105
▁가장	-7.5712
▁일본	-7.57758
▁모	-7.57763
▁그러나	-7.58081
▁나	-7.58268
:	-7.58385
형	-7.58513
▁그리고	-7.58576
바	-7.58796
▁그의	-7.59337
▁무	-7.59503
▁따라	-7.5983
▁강	-7.59949
▁미국	-7.61007
▁장	-7.61269
즈	-7.61383
방	-7.61797
현	-7.62305
!	-7.63464
▁동	-7.63628
▁formula	-7.63811
단	-7.64099
▁것을	-7.64283
▁반	-7.64493
▁된다	-7.64858
▁잘	-7.65031
네	-7.65179
▁있으며	-7.65347
▁서	-7.65352
유	-7.65537
코	-7.6583
▁선	-7.65982
양	-7.66212
며	-7.66463
▁약	-7.6662
▁할	-7.66902
연	-7.66936
종	-7.6733
포	-7.67462
▁데	-7.67615
티	-7.68235
▁김	-7.68271
▁것으로	-7.68378
▁했다	-7.68935
▁여기	-7.68951
▁정도	-7.69202
()	-7.69402
영	-7.70398
거	-7.70586
▁말	-7.70617
3	-7.70621
▁주세요	-7.70915
▁있었다	-7.70984
▁당시	-7.71161
교	-7.71346
들을	-7.71761
데	-7.72109
히	-7.72138
여	-7.72733
되는	-7.72885
된다	-7.73303
▁양	-7.73415
키	-7.73797
▁다시	-7.74019
재	-7.74416
러	-7.74476
부터	-7.74505
▁많은	-7.7454
안	-7.74911
▁큰	-7.75229
▁15	-7.75706
▁하는	-7.75854
▁우	-7.75871
▁알	-7.76703
디	-7.76939
▁바	-7.77083
▁16	-7.77188
▁하나	-7.77299
▁개	-7.77414
랑	-7.78898
▁남	-7.79104
▁많이	-7.79447
강	-7.80263
▁어떤	-7.80291
▁의해	-7.80484
반	-7.80609
▁연	-7.80964
학	-7.81634
▁단	-7.81703
▁것이	-7.81861
▁파	-7.82511
▁것이다	-7.82856
▁호	-7.82957
▁통해	-7.83287
▁명	-7.83444
피	-7.83469
▁17	-7.83849
내	-7.83895
체	-7.83974
일에	-7.84433
▁‘	-7.84541
권	-7.84669
되고	-7.84802
▁피	-7.84988
▁또는	-7.8548
▁세계	-7.85837
그	-7.86716
▁현재	-7.87009
▁20	-7.87093
▁A	-7.87446
▁역	-7.87551
▁모두	-7.88074
▁불	-7.8812
▁것	-7.88208
역	-7.8836
하면서	-7.88716
석	-7.89308
질	-7.89526
▁진	-7.90108
▁첫	-7.90122
던	-7.90213
이라는	-7.90865
▁총	-7.90877
▁카	-7.90883
간	-7.90962
▁어	-7.91397
▁경우	-7.91751
였다	-7.92057
려	-7.9226
터	-7.9255
번	-7.92574
▁재	-7.92689
이었다	-7.9289
▁어떻게	-7.93324
▁예	-7.93541
▁스	-7.93643
▁경	-7.93648
▁리	-7.94207
물	-7.94292
생	-7.94303
란	-7.94341
▁모든	-7.94391
▁산	-7.94477
행	-7.94603
▁저	-7.94851
▁여러	-7.94903
이라고	-7.94967
▁만	-7.95106
▁한국	-7.95224
▁뒤	-7.95367
류	-7.9545
▁S	-7.95491
’	-7.95659
린	-7.9651
▁초	-7.9686
병	-7.96952
▁같이	-7.97044
하였고	-7.97253
▁배	-7.97499
금	-7.9795
민	-7.98023
발	-7.98395
했고	-7.98438
론	-7.99027
청	-7.99174
/	-7.99176
두	-7.99678
▁돼요	-8.00126
▁포	-8.00366
▁노	-8.00417
▁발	-8.00466
▁건	-8.00661
▁입	-8.00764
개의	-8.01078
▁당	-8.01104
▁여	-8.0114
평	-8.01151
▁C	-8.01571
▁군	-8.0189
C	-8.02071
보다	-8.02843
▁위	-8.02946
왕	-8.03035
▁분	-8.0308
▁14	-8.03448
y	-8.0379
법	-8.03824
M	-8.03893
P	-8.04575
▁B	-8.04751
▁하고	-8.04757
속	-8.04865
▁열	-8.04877
19	-8.05452
▁하였다	-8.05526
후	-8.05629
브	-8.05687
S	-8.05784
▁번	-8.05786
판	-8.0597
▁되나요	-8.06612
는데	-8.06663
들의	-8.07029
▁차	-8.07617
운	-8.07735
▁문	-8.07902
이에요	-8.07986
D	-8.08055
집	-8.08118
건	-8.08716
▁각	-8.08843
▁사용	-8.09076
▁영화	-8.09177
▁하지만	-8.09313
▁것은	-8.09795
t	-8.09904
▁왕	-8.1024
예	-8.10261
령	-8.10296
▁지금	-8.10347
▁간	-8.10396
B	-8.10457
복	-8.1054
▁게	-8.118
백	-8.12021
▁위한	-8.12478
음	-8.1256
▁방	-8.12614
▁되어	-8.12835
▁13	-8.12908
▁있습니다	-8.1296
▁30	-8.12988
쿠	-8.132
색	-8.13271
▁등의	-8.13559
각	-8.13588
직	-8.13673
테	-8.13795
▁대한민국	-8.13856
▁타	-8.13969
하면	-8.14222
▁인	-8.1436
▁국가	-8.14604
▁있고	-8.15101
▁)	-8.15891
면서	-8.16212
▁시즌	-8.16374
남	-8.16389
▁자신의	-8.16435
▁삼	-8.16563
▁또	-8.16728
츠	-8.17028
초	-8.17143
목	-8.17401
점	-8.17601
▁외	-8.17953
n	-8.18089
▁천	-8.18299
▁볼	-8.18319
더	-8.1849
▁코	-8.18717
▁M	-8.19117
▁등이	-8.19373
▁지역	-8.19855
층	-8.19945
등	-8.20012
4	-8.20149
▁현	-8.20203
▁적	-8.20546
년에는	-8.20815
년부터	-8.20834
5	-8.20835
작	-8.20916
창	-8.20951
감	-8.21079
a	-8.21426
▁이러한	-8.2176
▁대해	-8.22248
통	-8.22283
온	-8.23097
심	-8.23109
▁그럼	-8.23323
▁본	-8.2341
▁중국	-8.23429
약	-8.23454
승	-8.23516
▁난	-8.23628
저	-8.23743
▁달	-8.24027
▁영	-8.24031
▁종	-8.24069
A	-8.24269
주의	-8.24725
er	-8.24726
▁축구	-8.24846
▁〈	-8.25037
이고	-8.25366
▁박	-8.25518
▁프랑스	-8.25597
▁다음과	-8.2576
입니다	-8.25958
곡	-8.26074
급	-8.26102
림	-8.26133
배	-8.26366
편	-8.26373
▁동안	-8.26682
▁조선	-8.2703
었다	-8.27352
▁물	-8.2757
세기	-8.27795
T	-8.28192
되었고	-8.29346
▁실	-8.2962
광	-8.29728
▁등을	-8.29879
래	-8.29969
해서	-8.30029
지만	-8.30654
▁교	-8.30734
>	-8.30886
▁독일	-8.30902
▁활동	-8.31043
태	-8.31162
▁해요	-8.3133
▁화	-8.31335
하였으며	-8.31412
워	-8.31513
▁청	-8.31551
▁치	-8.31802
▁된	-8.31886
▁있어	-8.31943
메	-8.32209
했으며	-8.32216
에도	-8.32291
난	-8.32355
▁요	-8.32358
▁연구	-8.32524
족	-8.32555
▁일부	-8.32861
i	-8.33051
▁다음	-8.33089
▁추가	-8.33122
km	-8.33618
력	-8.34112
▁매	-8.34334
▁있는데	-8.35326
▁리그	-8.35354
량	-8.3548
로서	-8.35694
al	-8.35717
▁이런	-8.35787
투	-8.36077
이라	-8.36115
절	-8.36436
▁이용	-8.36463
출	-8.3704
▁P	-8.37184
지는	-8.37214
▁기록	-8.3731
▁게임	-8.37425
▁2010	-8.37448
▁평	-8.37475
죠	-8.37613
▁들어	-8.37669
▁G	-8.37799
G	-8.3798
▁영국	-8.38002
▁아니라	-8.38214
▁서울	-8.38454
▁심	-8.38468
살	-8.38748
▁없어요	-8.38838
임	-8.38931
▁날	-8.39004
달	-8.39165
인가요	-8.39222
설	-8.39404
〉	-8.39474
▁시작	-8.39566
O	-8.39721
▁개발	-8.39792
▁못	-8.40313
▁“	-8.40607
로부터	-8.40647
▁도시	-8.40953
▁국제	-8.41104
...	-8.41429
K	-8.41506
F	-8.41609
e	-8.41716
ar	-8.41933
▁이상	-8.42016
이자	-8.42083
▁특히	-8.42392
▁거예요	-8.42493
▁사회	-8.42737
증	-8.42743
o	-8.42757
▁관	-8.42904
억	-8.42946
▁K	-8.43342
락	-8.43377
버	-8.4345
▁살	-8.43451
▁라	-8.43746
▁2008	-8.43929
봉	-8.4396
▁생각	-8.43987
준	-8.44446
▁따로	-8.44608
H	-8.44646
▁가지고	-8.44985
▁토	-8.45278
▁번째	-8.45367
▁예약	-8.45385
▁가지	-8.45389
업	-8.45419
6	-8.45432
▁D	-8.45454
7	-8.45615
▁편	-8.4568
▁계속	-8.45834
▁감	-8.46102
▁이는	-8.46189
▁아이	-8.46249
▁새로운	-8.46313
항	-8.46625
▁없는	-8.46625
▁F	-8.46644
8	-8.468
▁국	-8.46817
▁이를	-8.47038
▁대한민국의	-8.47224
될	-8.4741
나요	-8.47978
▁애	-8.48028
년까지	-8.48068
▁속	-8.48311
u	-8.48433
했던	-8.48653
스트	-8.48669
▁주로	-8.48755
▁2009	-8.48761
▁백	-8.48847
인데	-8.4897
시간	-8.49261
▁2011	-8.49283
▁결정	-8.49299
▁2007	-8.49368
기를	-8.49436
▁받았다	-8.4945
▁인해	-8.4948
박	-8.50086
E	-8.50289
본	-8.5058
▁직접	-8.50687
되었으며	-8.50781
in	-8.51106
▁2012	-8.512
▁L	-8.51203
▁광	-8.51257
월에	-8.5127
▁생	-8.51279
R	-8.51283
▁없다	-8.51293
▁최	-8.51305
L	-8.51333
▁즉	-8.51487
▁베	-8.51794
▁진행	-8.51825
기도	-8.51886
▁용	-8.51919
엔	-8.52107
▁<	-8.52306
▁매우	-8.5232
▁점	-8.52363
▁이어	-8.52404
”	-8.52496
▁되는	-8.52521
▁19	-8.52644
▁주문	-8.52655
an	-8.52919
씨	-8.53008
▁있던	-8.5304
▁줄	-8.53272
▁금	-8.53467
▁가능한가요	-8.53478
해야	-8.53583
하다	-8.53602
▁결제	-8.53663
▁레	-8.53816
너	-8.54054
▁작은	-8.54199
▁쓰	-8.54428
▁메	-8.54818
▁로마	-8.54854
▁않았다	-8.54945
▁변	-8.54988
열	-8.55016
▁미국의	-8.55158
처럼	-8.55312
▁수도	-8.55316
▁음악	-8.55636
▁않고	-8.56412
링	-8.56466
r	-8.56467
들과	-8.56507
져	-8.56559
▁대학	-8.56577
추	-8.56636
▁2014	-8.56878
▁여성	-8.56976
▁추	-8.57106
말	-8.57485
▁I	-8.57495
▁공격	-8.57585
▁바로	-8.5762
▁방송	-8.57667
료	-8.58058
▁T	-8.58157
탄	-8.58205
변	-8.58224
순	-8.58451
▁키	-8.58693
▁순	-8.5916
▁프로	-8.59225
환	-8.59473
▁2013	-8.59543
년대	-8.59606
하기도	-8.5968
▁같다	-8.59778
▁지방	-8.60055
▁팀	-8.60148
▁H	-8.60164
매	-8.60182
▁25	-8.60362
▁패	-8.60373
▁독립	-8.6069
길	-8.60919
▁황	-8.60975
▁결국	-8.61407
on	-8.61495
격	-8.61545
으며	-8.61562
되지	-8.6161
▁카드	-8.61885
근	-8.62037
립	-8.62206
▁한편	-8.62636
품	-8.62694
▁임	-8.62784
▁러시아	-8.62831
케	-8.62956
d	-8.636
예요	-8.63642
▁받아	-8.63647
커	-8.63651
해요	-8.63723
▁여자	-8.63808
암	-8.63844
▁온	-8.63849
명의	-8.63932
▁집	-8.63966
처	-8.64016
▁북	-8.64047
베	-8.64059
re	-8.64118
자가	-8.64134
▁2006	-8.64255
or	-8.64354
▁전쟁	-8.64374
표	-8.64452
en	-8.64479
ing	-8.6459
▁교육	-8.64628
▁팔	-8.64731
합	-8.64851
▁앨범	-8.64944
▁E	-8.65165
불	-8.65182
▁새	-8.65243
▁걸	-8.6535
▁결과	-8.65406
희	-8.65534
▁보통	-8.65611
▁손	-8.65679
입	-8.65733
▁어느	-8.65869
▁할인	-8.66056
▁통	-8.66141
N	-8.66166
▁조직	-8.66279
철	-8.66335
▁중앙	-8.66372
▁기술	-8.6639
성을	-8.66452
▁혹시	-8.66474
▁루	-8.66717
▁R	-8.67037
l	-8.67091
결	-8.67111
▁2015	-8.67117
▁생산	-8.67166
▁24	-8.67455
▁유럽	-8.67486
V	-8.67504
h	-8.67865
하자	-8.679
▁W	-8.68102
9	-8.68105
▁제작	-8.68173
▁the	-8.68414
거나	-8.68656
I	-8.68676
▁향	-8.68867
▁시간	-8.68901
▁섬	-8.6912
▁관리	-8.6913
▁대통령	-8.69173
담	-8.69186
▁처음	-8.69519
▁선수	-8.69575
▁위치한	-8.70235
▁아들	-8.70364
f	-8.70715
g	-8.70953
위를	-8.71103
▁21	-8.71123
어요	-8.71337
▁일본의	-8.71562
▁드	-8.71643
▁우리	-8.71686
축	-8.71825
▁계	-8.72101
▁따라서	-8.72173
▁정치	-8.7219
▁이에	-8.72216
▁경기	-8.72273
▁어디	-8.72415
▁가운데	-8.72421
▁되	-8.72464
일부터	-8.7257
▁송	-8.72997
k	-8.73031
▁얼마	-8.73203
▁2016	-8.73238
W	-8.73465
▁않는다	-8.7353
~	-8.73531
함	-8.73591
▁이거	-8.73623
▁채	-8.73753
▁만들어	-8.73926
하던	-8.74216
향	-8.74395
▁보고	-8.74436
▁뭐	-8.74534
▁거의	-8.74535
▁주요	-8.74701
▁좋은	-8.7476
▁100	-8.74791
릴	-8.74905
▁존재	-8.75062
슈	-8.75078
리아	-8.75221
록	-8.75272
▁병	-8.75292
▁N	-8.75369
▁복	-8.75443
▁2000	-8.75486
▁페	-8.7559
,000	-8.75661
북	-8.75856
▁표현	-8.76089
▁봉	-8.76388
덕	-8.76394
쓰	-8.76619
▁다양한	-8.7678
▁문화	-8.77009
퍼	-8.77016
▁of	-8.77354
망	-8.77374
▁돌	-8.77494
▁23	-8.77699
▁체	-8.77699
▁운영	-8.78004
20	-8.78026
날	-8.78191
▁원이에요	-8.78217
▁될	-8.78532
송	-8.7858
▁대신	-8.78588
▁우승	-8.78716
에서도	-8.78947
악	-8.79043
c	-8.79054
▁사람	-8.7921
▁높은	-8.79211
▁않은	-8.79302
스는	-8.79363
▁허	-8.79387
▁22	-8.79405
0	-8.79451
▁O	-8.79476
▁건물	-8.79581
▁하면	-8.79637
▁개인	-8.79683
▁대회	-8.79714
렌	-8.80272
▁있을	-8.80495
▁자유	-8.80506
▁전투	-8.80703
▁막	-8.80797
골	-8.80989
▁되고	-8.8102
▁주장	-8.81259
독	-8.8127
▁제품	-8.81467
▁2005	-8.81501
▁이름을	-8.81577
▁창	-8.81655
명이	-8.81693
▁고려	-8.81706
▁운동	-8.81905
▁야	-8.81993
▁판	-8.82008
▁법	-8.82036
▁친	-8.82204
사를	-8.82531
▁2017	-8.82829
us	-8.82847
으로서	-8.82894
총	-8.8304
▁경제	-8.83158
10	-8.83175
▁길	-8.83753
▁별	-8.83809
팀	-8.83971
▁일반	-8.83993
율	-8.84175
런	-8.84243
졌다	-8.84317
▁이탈리아	-8.84591
▁근	-8.84732
언	-8.84761
으로부터	-8.84803
▁현대	-8.84857
▁얼마에요	-8.84891
상을	-8.84915
▁아닌	-8.84923
")	-8.8499
삼	-8.85
▁왜	-8.85112
▁따르면	-8.85163
▁전체	-8.85233
▁얼마나	-8.85265
▁시리즈	-8.85528
▁후에	-8.85544
▁잔	-8.85701
았다	-8.85709
블	-8.85741
녀	-8.85905
▁프로그램	-8.86058
술	-8.86079
▁크게	-8.86086
▁영향을	-8.86106
▁됩니다	-8.86188
▁회사	-8.86235
▁열린	-8.86345
U	-8.86434
외	-8.86462
▁회	-8.86525
▁갈	-8.86672
▁가능합니다	-8.86805
손	-8.86817
▁V	-8.86829
▁자리	-8.86872
극	-8.86932
했지만	-8.86948
하는데	-8.87156
▁태	-8.87191
le	-8.87293
장을	-8.87311
▁2004	-8.8737
▁절	-8.87373
▁2018	-8.87452
▁지원	-8.87724
위원회	-8.87729
별	-8.87898
▁죽	-8.87991
네요	-8.88018
▁직	-8.88127
▁조금	-8.88142
▁아버지	-8.88222
번째	-8.88269
p	-8.88329
▁아니	-8.88357
▁딸	-8.88552
▁28	-8.88692
▁남자	-8.88769
▁있어서	-8.88792
▁올림픽	-8.88875
황	-8.89202
페	-8.89287
였던	-8.89323
▁중요한	-8.89412
례	-8.89468
님	-8.89471
b	-8.89475
▁디	-8.89495
▁합	-8.89521
울	-8.8955
▁발견	-8.89644
▁정부	-8.89644
들에게	-8.89813
권을	-8.89889
▁알려져	-8.89925
리그	-8.90053
름	-8.90333
▁참	-8.90334
▁사이에	-8.90456
와의	-8.90485
▁발전	-8.90539
▁행	-8.90571
▁서로	-8.90806
▁27	-8.90903
▁구조	-8.91028
▁테	-8.91109
▁역시	-8.91158
▁원래	-8.91163
▁학교	-8.91197
슨	-8.91393
▁26	-8.91451
범	-8.91515
▁소속	-8.91864
▁증	-8.92305
▁않는	-8.92305
」	-8.92311
좌	-8.9235
자를	-8.92372
▁판매	-8.92888
大	-8.92941
밀	-8.92982
▁민	-8.93052
▁오늘	-8.93146
긴	-8.93247
ed	-8.93299
▁윤	-8.93428
대학교	-8.93553
▁각각	-8.93553
▁그가	-8.93639
▁홍	-8.93783
갈	-8.93847
▁너무	-8.93943
채	-8.9433
▁기준	-8.9457
▁감독	-8.94575
is	-8.94629
▁구성	-8.94645
▁거쳐	-8.94754
▁시대	-8.94804
▁진출	-8.94914
▁목	-8.94929
▁J	-8.94969
▁건설	-8.94981
▁함	-8.94993
▁관한	-8.95084
▁앞	-8.95291
▁전에	-8.95418
▁제국	-8.95429
▁음반	-8.95537
▁기간	-8.95692
▁유지	-8.95775
▁배달	-8.95881
▁누	-8.95973
패	-8.95991
▁군사	-8.95994
▁나가	-8.96047
▁언어	-8.96099
▁관련	-8.96136
▁배우	-8.96171
에요	-8.96173
▁철	-8.96253
》(	-8.96391
▁자연	-8.9659
▁작품	-8.966
▁대학교	-8.9672
▁데뷔	-8.97277
▁보내	-8.97594
▁50	-8.97651
▁마지막	-8.97701
▁설치	-8.97719
군의	-8.97759
▁좋아	-8.97796
▁대전	-8.97847
▁최고	-8.97921
▁얼마예요	-8.98044
되면서	-8.98119
▁버	-8.98133
▁계획	-8.98405
스타	-8.98584
▁음	-8.98588
충	-8.98698
이랑	-8.98724
▁반대	-8.98726
있다	-8.98852
▁여기서	-8.99018
일까지	-8.99153
▁그룹	-8.99247
▁지구	-8.99329
▁표	-8.99341
▁참여	-8.99373
▁아래	-8.99374
▁이렇게	-8.99467
▁과	-8.99483
▁귀	-8.99542
른	-8.99616
하였으나	-8.99679
▁출전	-8.99687
▁대표	-8.99832
▁동시에	-8.99882
▁그런	-8.99954
돌	-9.00078
▁달리	-9.0022
가요	-9.00224
궁	-9.00246
▁형	-9.00357
자로	-9.00382
▁극	-9.00535
규	-9.00595
▁부분	-9.00648
▁독	-9.0073
됐다	-9.00733
볼	-9.00917
▁투	-9.01086
▁농	-9.0111
▁하는데	-9.01151
▁2002	-9.01282
▁헤	-9.01292
으면	-9.0142
▁들어가	-9.01438
▁드라마	-9.01565
있는	-9.01811
▁악	-9.01868
대학	-9.01886
▁시작했다	-9.01944
▁몸	-9.02221
풍	-9.02281
▁맞	-9.02285
▁시스템	-9.02335
든	-9.02445
▁참가	-9.0251
▁0	-9.02657
▁사이	-9.02689
▁제일	-9.02718
시에	-9.02833
학교	-9.02935
▁29	-9.02973
▁철도	-9.03024
초등학교	-9.03266
성이	-9.03322
▁결혼	-9.03457
▁FC	-9.03512
이었던	-9.0352
▁석	-9.03577
et	-9.03706
▁확인	-9.03779
기는	-9.03832
▁출	-9.03852
▁가진	-9.03922
("	-9.04121
▁그냥	-9.04146
▁만든	-9.04209
]	-9.04213
z	-9.0423
▁머리	-9.04328
ch	-9.04432
했으나	-9.04542
▁내가	-9.04543
▁공간	-9.04582
스터	-9.04631
▁2003	-9.04702
이기도	-9.04877
대로	-9.04992
▁선거	-9.05353
▁변경	-9.05392
▁계산	-9.05394
▁설명	-9.05428
▁승강장	-9.05567
자는	-9.05628
▁운행	-9.05719
▁하여	-9.05723
▁포장	-9.0583
▁발매	-9.05912
▁올	-9.05917
▁티	-9.06095
▁경기에서	-9.0619
▁설	-9.06229
▁처음으로	-9.06321
▁U	-9.06352
지를	-9.06427
▁없이	-9.06442
▁나온	-9.0656
▁기본	-9.06569
막	-9.06622
▁가격이	-9.06738
숙	-9.06811
▁옷	-9.06823
우스	-9.06944
▁있을까요	-9.06973
▁역할을	-9.07129
▁결	-9.07143
▁곡	-9.07227
▁면	-9.07267
▁아파트	-9.073
▁행정	-9.07341
▁자기	-9.07459
▁학	-9.0753
▁하나요	-9.07576
시켰다	-9.07664
▁커	-9.07721
▁발표	-9.0784
▁육	-9.0785
_1	-9.07907
▁들	-9.07921
다가	-9.0794
▁인간	-9.08055
▁둘	-9.08064
▁접	-9.08126
탈	-9.08429
되며	-9.08513
▁국민	-9.08634
▁최초의	-9.08745
▁의한	-9.08756
▁이미	-9.0878
마다	-9.08797
리는	-9.08803
▁권	-9.08819
헌	-9.09002
▁이때	-9.0902
애	-9.09151
▁「	-9.09189
▁도입	-9.09195
▁요구	-9.09253
때	-9.09279
▁제가	-9.09358
▁컴퓨터	-9.09374
책	-9.09398
▁존	-9.09591
머	-9.09615
▁승리	-9.09683
▁사람이	-9.09694
기가	-9.0974
▁성공	-9.09752
원입니다	-9.09762
▁경기도	-9.09845
▁책	-9.09945
친	-9.10006
▁해당	-9.10097
▁이름	-9.10129
자의	-9.10158
▁색	-9.10202
명을	-9.10215
▁승	-9.10223
빈	-9.10226
▁차량	-9.10276
▁빈	-9.10387
▁받고	-9.10454
30	-9.10754
▁인도	-9.10796
▁이동	-9.10799
▁사상	-9.10881
el	-9.10961
▁형성	-9.10975
▁중심	-9.11034
▁준비	-9.11145
▁잡	-9.11157
나라	-9.11168
세의	-9.11235
ur	-9.11307
▁적용	-9.11357
▁평가	-9.11446
▁그러면	-9.11638
주세요	-9.11677
▁드릴게요	-9.1179
▁싱글	-9.11825
스의	-9.11899
▁이거는	-9.11903
▁인정	-9.11977
▁노래	-9.11995
▁수행	-9.12071
▁분류	-9.12141
▁문제	-9.12405
▁있다고	-9.12463
▁것도	-9.12545
으	-9.12566
50	-9.12595
습니다	-9.12752
▁정의	-9.12848
▁설립	-9.12907
▁밀	-9.13156
▁땅	-9.13351
▁필요	-9.13411
하지만	-9.13568
▁조사	-9.13574
▁이것은	-9.13619
▁서비스	-9.13687
▁발생	-9.13821
▁역사	-9.13877
필	-9.13974
▁모델	-9.14156
▁특	-9.14164
▁아니요	-9.14171
▁사랑	-9.14183
at	-9.14252
▁단체	-9.14261
누	-9.14356
▁지배	-9.14563
▁제공	-9.14574
▁드릴까요	-9.1459
호로	-9.1472
▁위하여	-9.14856
山	-9.14898
익	-9.15037
▁찾아	-9.15058
▁벌	-9.15114
습	-9.15232
▁31	-9.15258
▁필	-9.15431
읍	-9.15615
▁니	-9.1562
▁국내	-9.15659
▁전국	-9.15697
▁언제	-9.15702
▁기업	-9.15759
▁:	-9.15778
하거나	-9.15841
▁황제	-9.15975
찬	-9.15982
▁포함	-9.15986
es	-9.16013
먼	-9.16434
흥	-9.16438
경기	-9.16457
▁사실	-9.16681
th	-9.16748
세요	-9.16815
)·	-9.16917
▁위에	-9.16932
▁경찰	-9.17078
▁1990	-9.17078
▁사업	-9.17141
벌	-9.17185
▁격	-9.17272
하시면	-9.17272
가지	-9.17288
金	-9.17349
까	-9.17415
▁일반적으로	-9.17431
슬	-9.17459
▁그녀는	-9.17571
▁안에	-9.17647
▁보호	-9.17677
▁받은	-9.17689
X	-9.17739
▁항	-9.17861
cm	-9.17867
▁디자인	-9.1797
▁연방	-9.18083
▁취	-9.18137
참	-9.18227
ra	-9.18246
플	-9.18428
▁중심으로	-9.18607
▁밖에	-9.18684
척	-9.18717
;	-9.18761
▁이론	-9.18766
▁인구는	-9.19057
▁영어	-9.19058
▁마을	-9.19097
▁준	-9.19131
▁공식	-9.19213
ic	-9.19285
기에	-9.19417
▁말한다	-9.19436
▁야구	-9.19472
▁이전	-9.19501
▁노선	-9.19534
▁슈	-9.1962
액	-9.19623
회의	-9.19675
▁사건	-9.19758
씩	-9.19813
▁선택	-9.19885
턴	-9.1989
거리	-9.19917
▁기준으로	-9.20043
it	-9.20079
▁쇼	-9.20103
▁눈	-9.20117
▁40	-9.20152
세가	-9.20205
▁하며	-9.20278
▁정보	-9.203
옥	-9.2031
▁칼	-9.20315
▁겸	-9.20352
존	-9.20384
▁두고	-9.20619
▁암	-9.20628
mm	-9.20724
▁히	-9.20864
▁와	-9.21039
걸	-9.21119
▁식	-9.21135
줄	-9.2115
으나	-9.21214
▁출연	-9.2126
했는데	-9.21267
▁2001	-9.21322
▁밴드	-9.21541
움	-9.216
▁혹은	-9.21626
▁후보	-9.2167
▁지정되었다	-9.21691
▁얼마인가요	-9.21756
찰	-9.21807
▁사망	-9.2183
ad	-9.21858
00	-9.21879
▁s	-9.21913
겨	-9.2196
칸	-9.21993
글	-9.22047
▁가족	-9.2205
▁하지	-9.22067
취	-9.2209
▁떡	-9.22149
▁종류	-9.22153
▁클럽	-9.22159
▁비판	-9.223
▁어머니	-9.22343
▁전화	-9.22362
개월	-9.22379
▁교황	-9.22503
니까	-9.22558
▁때문이다	-9.22569
▁가격	-9.22577
60	-9.22639
▁수업	-9.22651
▁이야기	-9.22667
▁산업	-9.22741
▁급	-9.22811
군은	-9.22833
▁계약	-9.2323
▁전기	-9.23424
▁있지만	-9.23426
李	-9.23483
셔	-9.23518
염	-9.23591
▁곧	-9.23643
▁소설	-9.23888
장이	-9.24234
▁사고	-9.24298
었고	-9.24298
12	-9.24438
▁가능	-9.24453
▁증가	-9.24858
▁의미	-9.24911
▁출신	-9.2492
리스	-9.25013
▁먼저	-9.25176
▁임명	-9.25259
▁이름은	-9.25342
운동	-9.25552
사가	-9.25642
▁그리스	-9.25679
▁개의	-9.2569
▁실시	-9.25715
련	-9.25743
자리	-9.25765
▁교수	-9.25796
▁되었고	-9.25977
▁없	-9.25981
▁건가요	-9.26186
훈	-9.26215
▁태어났다	-9.26345
▁개최	-9.26362
틀	-9.26367
▁학생	-9.26493
▁등장	-9.2656
다고	-9.26819
이요	-9.26973
▁의원	-9.27168
▁해야	-9.27188
윤	-9.27289
▁수선	-9.27435
▁자신이	-9.27619
람	-9.27626
▁아직	-9.27639
▁글	-9.27754
▁행사	-9.27759
션	-9.28036
것	-9.28071
교육	-9.28107
귀	-9.28205
시켜	-9.28207
▁없어	-9.28282
▁초기	-9.283
▁그를	-9.28306
시면	-9.28317
▁잠	-9.28321
견	-9.28336
기관	-9.28341
니아	-9.28349
▁환경	-9.2835
▁기독교	-9.28452
▁없나요	-9.2846
▁생활	-9.28727
▁시에	-9.28794
▁인구	-9.28922
▁교회	-9.29024
톤	-9.2905
함으로써	-9.29055
▁대부분의	-9.29065
지고	-9.29144
▁통합	-9.29168
▁뉴욕	-9.29241
▁폭	-9.29332
▁없었다	-9.29345
▁뒤에	-9.29464
w	-9.29518
▁내부	-9.29524
▁연기	-9.29645
▁있게	-9.29669
▁중에	-9.29692
▁육군	-9.29707
▁긴	-9.29715
ol	-9.29798
▁공개	-9.29866
▁작	-9.29894
▁환	-9.30066
년간	-9.3027
했을	-9.30374
릭	-9.30437
들에	-9.3052
▁담당	-9.30545
몬	-9.30547
만원	-9.30661
▁부족	-9.30781
▁앞에	-9.30814
▁활동을	-9.30885
▁최대	-9.31168
▁대부분	-9.31293
세는	-9.3135
▁우주	-9.31362
▁방문	-9.31374
▁지나	-9.31375
▁음식	-9.31459
▁월드컵	-9.31505
하도록	-9.31548
▁이제	-9.31674
11	-9.31794
▁걸쳐	-9.31804
▁위치	-9.31904
▁커피	-9.31918
-1	-9.32033
리에	-9.32131
▁갖고	-9.32137
▁그렇게	-9.32226
40	-9.32241
새	-9.32277
▁기원전	-9.323
▁너	-9.32387
▁더욱	-9.32401
▁폐	-9.32527
칭	-9.32547
육	-9.32858
▁FIFA	-9.3289
선의	-9.3293
장으로	-9.32989
▁민족	-9.33046
▁최초로	-9.3315
침	-9.3321
▁시장	-9.33263
려고	-9.33279
▁a	-9.33298
▁도쿄	-9.33321
▁버전	-9.33427
▁친구	-9.33432
▁시기	-9.33593
▁1999	-9.33666
되기	-9.33742
am	-9.33775
▁1980	-9.3384
."	-9.33856
▁보인다	-9.33909
▁측	-9.33911
젠	-9.33941
▁염색	-9.33957
▁애니메이션	-9.3399
이란	-9.34068
촌	-9.34113
▁하다	-9.34135
▁성장	-9.34147
▁원입니다	-9.34171
되	-9.34278
▁완	-9.34396
▁남부	-9.34453
▁사이즈	-9.34661
▁기관	-9.3467
▁처	-9.34679
기로	-9.34705
▁m	-9.34826
고등학교	-9.34851
▁TV	-9.34894
▁아메리카노	-9.34906
쇼	-9.34988
▁혼	-9.35187
완	-9.35232
▁밤	-9.35239
▁활약	-9.35259
▁있	-9.35263
▁1998	-9.35266
▁골	-9.3533
이지만	-9.3536
▁저희	-9.35408
▁연결	-9.35453
▁대하여	-9.35615
도록	-9.35695
착	-9.35732
력을	-9.35779
]]	-9.3579
▁관계	-9.35803
▁스페인	-9.35907
▁레이	-9.35925
▁이상의	-9.35973
▁전문	-9.36071
▁있었던	-9.36107
클	-9.36138
▁이름으로	-9.36178
▁가수	-9.36246
팔	-9.36294
라이	-9.36297
▁등으로	-9.36301
합니다	-9.36305
▁넘	-9.36421
▁적립	-9.36456
텐	-9.36534
▁부산	-9.366
▁나라	-9.3667
▁영수증	-9.36707
시키는	-9.36719
냐	-9.36837
▁이건	-9.3688
_2	-9.36894
되었으나	-9.37003
나무	-9.37091
▁오후	-9.3714
▁거리	-9.37227
▁퍼	-9.37247
▁무슨	-9.37291
▁제도	-9.37389
▁선발	-9.37542
일에는	-9.37561
▁십	-9.37694
▁곳	-9.37768
▁넣어	-9.37797
▁탄	-9.37842
▁풍	-9.3787
까요	-9.37938
▁변화	-9.37968
스크	-9.38017
지역	-9.38039
▁한번	-9.381
▁실패	-9.38191
▁기타	-9.38298
▁등에	-9.3847
as	-9.3865
칠	-9.38673
▁연속	-9.38685
팅	-9.38689
문화	-9.38728
호선	-9.38733
탕	-9.38738
측	-9.38776
▁정도로	-9.38778
장은	-9.38836
▁시까지	-9.38864
▁놓	-9.38873
군을	-9.38891
싱	-9.38893
▁하루	-9.38998
▁방식	-9.39062
▁고대	-9.39139
▁축	-9.39151
▁필요한	-9.39184
▁이유로	-9.39203
15	-9.39277
렸다	-9.39356
▁먹	-9.39411
▁오래	-9.39484
14	-9.39502
▁선정	-9.39688
▁형태	-9.39692
수가	-9.39723
J	-9.39739
▁시절	-9.39788
전에서	-9.39893
▁이해	-9.40172
▁될까요	-9.40238
김	-9.40249
▁해군	-9.40399
▁공동	-9.40547
ro	-9.40555
▁남아	-9.40718
▁씨	-9.40764
80	-9.40938
▁가격은	-9.40943
▁[[	-9.40989
맨	-9.41038
▁전자	-9.41115
▁확장	-9.41117
▁캐	-9.41173
▁점령	-9.41399
묘	-9.41494
▁있기	-9.41573
▁탈	-9.41662
st	-9.41691
레스	-9.41723
스가	-9.41792
▁높	-9.41852
▁과거	-9.41862
▁정당	-9.41921
쳐	-9.42052
택	-9.42058
치는	-9.42071
▁프리	-9.42146
▁않다	-9.42159
▁있지	-9.4218
▁낙	-9.42358
▁의사	-9.42443
▁동물	-9.42514
▁그들의	-9.42573
▁없고	-9.42593
▁주차	-9.42623
압	-9.42694
▁음료	-9.42696
▁강화	-9.42716
▁가능해요	-9.42754
▁북부	-9.42768
▁작가	-9.42805
홍	-9.42809
la	-9.42913
▁1997	-9.42936
시는	-9.4296
쪽	-9.42989
▁가능한	-9.43
▁예를	-9.4313
▁설계	-9.43162
시까지	-9.43244
il	-9.43339
▁표준	-9.4345
70	-9.43566
▁사람들이	-9.43584
▁보여	-9.43659
▁자주	-9.43693
▁해주세요	-9.43699
▁공연	-9.43712
▁혁명	-9.43734
▁현재는	-9.43788
학년	-9.43941
▁서울특별시	-9.43963
▁퇴	-9.44045
▁종교	-9.44115
▁터	-9.44152
▁거야	-9.44282
대를	-9.44288
▁말했다	-9.44338
▁충	-9.44426
▁영업	-9.44443
수를	-9.44447
▁형식	-9.44467
ri	-9.44467
방송	-9.44475
야마	-9.44499
▁맥	-9.44521
▁올라	-9.44526
▁휴	-9.4456
▁수상	-9.44713
▁해서	-9.44773
니다	-9.44819
▁응	-9.44856
▁그림	-9.44941
▁잉글랜드	-9.44994
18	-9.45017
군이	-9.45055
▁현금	-9.45123
▁열차	-9.45175
▁울	-9.45176
▁그들은	-9.45259
▁처리	-9.4535
▁거는	-9.45366
▁돈	-9.45399
▁정규	-9.45461
▁만나	-9.4548
쳤다	-9.45547
▁그러	-9.45595
▁자체	-9.4564
▁속도	-9.45661
▁문자	-9.4568
▁조약	-9.45732
16	-9.45782
▁상대	-9.45789
▁언급	-9.45824
▁기념	-9.4584
州	-9.45865
Y	-9.45869
▁1995	-9.4587
▁가방	-9.4594
▁새로	-9.46033
▁만들	-9.46107
▁지명	-9.46213
스와	-9.46246
▁않아	-9.46277
샤	-9.46292
▁시간이	-9.46315
▁비해	-9.46365
프로	-9.46385
▁이들은	-9.46397
▁그래	-9.46428
▁알아	-9.46434
▁도로	-9.46483
▁기능	-9.46486
하려고	-9.46527
▁의회	-9.4658
농	-9.46651
▁염	-9.46699
▁폴란드	-9.46708
▁1996	-9.46764
▁크기	-9.46778
▁나머지	-9.46789
▁조정	-9.46843
▁내려	-9.46866
▁나오	-9.47038
▁네덜란드	-9.47074
곤	-9.47076
▁꽃	-9.47181
▁풀	-9.47185
▁말씀	-9.47224
▁평균	-9.47255
버스	-9.47279
▁영화이다	-9.47296
▁사용하는	-9.47302
▁내용	-9.47322
▁시설	-9.47355
▁것이라고	-9.47367
▁지정	-9.47383
▁to	-9.47455
엄	-9.47496
올	-9.47544
▁높이	-9.4757
▁그래서	-9.47617
▁맡았다	-9.47711
점을	-9.47713
▁이듬해	-9.47721
▁목적	-9.47796
▁정책	-9.47821
알	-9.47829
자와	-9.47838
▁실험	-9.47918
▁뿐	-9.47987
▁모습을	-9.48072
컵	-9.48086
효	-9.48172
ation	-9.48216
▁완전히	-9.48222
▁아시아	-9.4823
화를	-9.48243
벨	-9.48246
▁스타	-9.4833
▁규정	-9.48367
▁이들	-9.48396
다는	-9.48521
엘	-9.48568
혀	-9.48569
▁많다	-9.4857
하였는데	-9.4864
▁이름이	-9.48646
▁과정	-9.48666
했다고	-9.48678
▁요청	-9.48714
▁불구하고	-9.48718
▁밝혔다	-9.4883
▁샤	-9.48935
▁비슷한	-9.48942
흐	-9.48951
▁쿠	-9.49094
▁태양	-9.49106
▁소련	-9.49124
▁군대	-9.49262
센	-9.494
▁그대로	-9.49475
▁노력	-9.49528
▁교통	-9.49603
▁X	-9.49768
▁따	-9.49776
▁주도	-9.49776
잡	-9.4978
▁파리	-9.49822
▁나중에	-9.49878
▁시도	-9.49894
▁지지	-9.49928
▁통과	-9.49936
▁작업	-9.50003
룡	-9.50035
률	-9.50127
▁못했다	-9.50206
▁담	-9.50286
文	-9.50288
▁물론	-9.50425
▁이게	-9.50541
▁스스로	-9.50566
랜드	-9.50568
▁속하는	-9.50622
정부	-9.5066
▁견	-9.5068
▁부대	-9.5071
제를	-9.50771
선을	-9.50814
▁오늘날	-9.50852
▁옥	-9.50924
▁망	-9.50932
▁예술	-9.50983
▁함수	-9.51087
▁유래	-9.51114
▁엔진	-9.51147
▁차례	-9.51165
▁1994	-9.51199
겐	-9.51217
▁연합	-9.51222
▁때까지	-9.51289
▁공화국	-9.51362
▁인물	-9.51365
▁인터넷	-9.5137
▁쪽	-9.51405
사회	-9.51414
월부터	-9.5156
드는	-9.51754
▁질	-9.51803
13	-9.51837
▁지역의	-9.51971
The	-9.52001
혼	-9.52016
ne	-9.52026
리가	-9.52041
▁크	-9.52042
un	-9.5214
▁과학	-9.52263
▁같	-9.52295
▁200	-9.52298
▁1970	-9.52349
王	-9.52356
빌	-9.52357
▁지휘	-9.52434
▁·	-9.52576
▁f	-9.52842
▁개념	-9.52876
사의	-9.52884
▁이와	-9.52911
▁자료	-9.52963
▁지난	-9.52979
▁상태	-9.53077
▁공립	-9.53108
▁등록	-9.53112
▁캐나다	-9.5315
지가	-9.53154
▁대체	-9.53219
허	-9.53302
▁알려진	-9.53311
▁발달	-9.53387
▁일이	-9.53424
▁언론	-9.53472
17	-9.53513
▁길이	-9.53537
ia	-9.53553
▁메뉴	-9.53603
▁조각	-9.53619
검	-9.53675
▁사용할	-9.53723
월에는	-9.53728
▁브	-9.53871
▁널리	-9.53895
▁등과	-9.53897
▁경험	-9.53952
▁1992	-9.54057
▁포함한	-9.54146
▁분리	-9.54153
▁유명한	-9.54154
▁푸	-9.5433
힌	-9.54359
혈	-9.54427
▁국가대표팀	-9.54495
▁헌	-9.5454
▁것에	-9.5459
ut	-9.54644
수는	-9.54735
▁요시	-9.54827
▁존재한다	-9.5487
▁기초	-9.54926
▁도착	-9.551
갑	-9.55164
▁선언	-9.55164
▁빛	-9.5522
▁엘	-9.553
▁헌법	-9.55322
춘	-9.55342
스를	-9.55447
▁분야	-9.55544
▁행성	-9.5562
▁차지	-9.55637
멸	-9.55658
▁연주	-9.5574
위에	-9.55756
▁지도	-9.55798
▁선수이다	-9.55847
_	-9.55851
▁부인	-9.55888
▁가정	-9.56009
▁나가요	-9.56011
지로	-9.56022
▁주변	-9.56174
▁말고	-9.56227
▁하나의	-9.56379
돈	-9.56385
▁파괴	-9.56445
폭	-9.5651
▁제한	-9.56548
▁알겠습니다	-9.56585
▁브라질	-9.56713
▁분석	-9.56739
능	-9.56788
x	-9.56814
▁비롯한	-9.56907
트로	-9.56953
▁500	-9.56967
▁대중	-9.5702
▁추진	-9.57084
▁방어	-9.57134
▁구단	-9.57234
세를	-9.57308
[	-9.57341
▁물질	-9.57413
▁특징	-9.57515
25	-9.57529
▁전부	-9.57548
▁믿	-9.57557
▁예정	-9.57712
▁현재의	-9.5773
▁b	-9.57884
몽	-9.57887
te	-9.57927
▁아주	-9.57985
▁전통	-9.58026
▁위해서	-9.5804
▁칸	-9.58126
▁남성	-9.58148
▁거주	-9.58184
사로	-9.58201
▁하나로	-9.58208
▁합니다	-9.58211
▁건축	-9.58224
진다	-9.58255
▁정리	-9.58283
▁있도록	-9.58308
▁세탁	-9.58336
▁사이의	-9.58344
』	-9.58358
ir	-9.58412
▁최종	-9.58438
▁아르	-9.58447
▁그녀의	-9.58454
응	-9.58481
콘	-9.58554
탁	-9.58654
▁구분	-9.5866
틴	-9.58671
인이	-9.5871
▁이적	-9.58718
▁아침	-9.58749
▁포인트	-9.58801
j	-9.58804
▁치료	-9.58819
스키	-9.58826
▁나오는	-9.58876
▁km	-9.58892
엽	-9.58942
▁다이	-9.59058
▁겨울	-9.59148
▁오르	-9.59216
▁명의	-9.59236
▁스타일	-9.59282
▁검	-9.59283
▁오스트리아	-9.59354
밖에	-9.59361
되기도	-9.59375
▁방법	-9.59518
▁you	-9.59541
▁행동	-9.59548
하려	-9.59592
0%	-9.59621
▁달러	-9.59626
ter	-9.59647
um	-9.59664
▁워	-9.59669
▁프	-9.59692
▁1991	-9.598
▁빵	-9.59804
▁프로젝트	-9.59964
▁북한	-9.60054
-2	-9.60082
▁배치	-9.60099
명은	-9.60116
▁다섯	-9.60116
▁논	-9.60124
혜	-9.60135
▁제품은	-9.60137
사업	-9.60151
▁지역에	-9.60153
id	-9.60161
▁몰	-9.60189
▁것과	-9.60232
▁패배	-9.60232
▁체제	-9.60233
▁목적으로	-9.60271
▁복귀	-9.60309
하라	-9.6031
▁요리	-9.6036
폐	-9.60383
▁1993	-9.60447
▁버스	-9.60462
▁떠나	-9.60478
▁보다	-9.60494
▁2019	-9.60509
▁1960	-9.60608
▁오전	-9.60645
▁초대	-9.60718
▁번호	-9.60757
▁부여	-9.60785
▁경쟁	-9.60788
상의	-9.60867
▁정신	-9.6087
▁과정에서	-9.60879
▁영국의	-9.6091
카드	-9.60913
▁가능하다	-9.60915
▁숙	-9.60915
▁and	-9.60926
▁만약	-9.61033
▁하나이다	-9.6105
▁되죠	-9.61058
500	-9.61088
▁c	-9.61282
▁제안	-9.61345
▁선수로	-9.61475
▁지하	-9.61492
▁공항	-9.61499
▁콜	-9.61632
ot	-9.61652
▁우승을	-9.61656
▁런던	-9.61714
▁세일	-9.6175
▁있으나	-9.61772
▁만화	-9.61801
▁해결	-9.61812
▁항공	-9.61836
國	-9.61902
▁사진	-9.62019
op	-9.62094
▁끝에	-9.62098
▁차이	-9.62116
▁통치	-9.62127
ie	-9.62138
▁타이	-9.62147
었으며	-9.622
▁동쪽	-9.62215
▁후반	-9.62281
▁졸업	-9.62337
▁끝	-9.6239
▁때는	-9.62436
▁나무	-9.62453
▁세트	-9.62532
▁출시	-9.62535
대의	-9.62552
▁위험	-9.62569
▁곳에	-9.62574
▁불리는	-9.62636
▁머	-9.62639
▁거부	-9.62656
TV	-9.6272
렉	-9.62795
▁캐릭터	-9.62849
▁1988	-9.62856
균	-9.62877
시대	-9.6288
▁정말	-9.63023
▁요즘	-9.63052
▁가까운	-9.63117
▁안전	-9.63134
▁60	-9.63201
킹	-9.6321
▁표시	-9.63262
▁그런데	-9.63282
▁경우가	-9.63317
시아	-9.6339
▁알고	-9.63429
▁영역	-9.63502
리를	-9.63535
▁힘	-9.63543
▁따른	-9.63635
▁결성	-9.63659
▁안정	-9.63701
협	-9.63731
▁것이었다	-9.63732
|	-9.63772
▁침	-9.63777
▁있다는	-9.63791
▁대구	-9.63927
▁뜻	-9.63999
▁회원	-9.64004
▁부문	-9.64113
▁아프리카	-9.64171
▁발행	-9.6419
▁핵	-9.64206
▁해석	-9.64255
▁신라	-9.64291
▁봄	-9.64346
▁배우이다	-9.64363
냈다	-9.64421
▁접근	-9.64431
▁세포	-9.64441
▁법률	-9.64455
▁수학	-9.64484
▁의하여	-9.64508
하다가	-9.64575
)'	-9.64578
▁성인	-9.64581
▁텔레비전	-9.64595
ig	-9.64637
▁결합	-9.64669
▁같아요	-9.6474
▁넣	-9.64788
▁문학	-9.64858
▁중에서	-9.64866
▁낮	-9.64928
레이	-9.64929
▁관측	-9.64929
▁바다	-9.64937
▁항상	-9.6495
▁장군	-9.64966
앙	-9.65034
▁문서	-9.65045
▁아내	-9.65073
▁연락	-9.65087
▁통일	-9.65127
▁기계	-9.6517
▁에너지	-9.65198
▁대상	-9.65236
▁The	-9.65322
▁체계	-9.65337
자인	-9.65355
▁쌍	-9.65371
▁슬	-9.65393
골을	-9.65404
▁집합	-9.65559
▁고등학교	-9.65564
▁단계	-9.6566
▁선출	-9.65665
▁출판	-9.65705
닝	-9.65729
▁시민	-9.65744
▁구성되어	-9.65752
▁구간	-9.6582
▁지역에서	-9.65881
se	-9.65886
동에	-9.65902
▁/	-9.65917
▁불교	-9.65971
▁뭐가	-9.66061
▁실제	-9.66171
▁in	-9.6623
▁돼	-9.6634
헤	-9.6635
▁걸로	-9.66395
▁케이크	-9.66403
▁카드로	-9.66457
▁상가	-9.66475
▁평화	-9.66489
▁보이	-9.66535
▁칠	-9.66584
▁일어나	-9.66631
자들은	-9.66642
▁신발	-9.66724
▁불러	-9.66742
▁가능하세요	-9.66767
어로	-9.66788
▁투수	-9.66817
럼	-9.66899
▁총리	-9.66921
▁집단	-9.6697
▁이유	-9.66989
▁사용한다	-9.66995
▁독일의	-9.67142
식을	-9.67186
▁스포츠	-9.67188
▁경우에는	-9.6736
▁UEFA	-9.67361
원이	-9.67365
▁바이	-9.67368
▁떨어진	-9.67407
▁왕국	-9.67413
▁지적	-9.6742
했	-9.67437
▁특별	-9.67448
▁동부	-9.67475
튼	-9.67505
▁의하면	-9.67528
▁휘	-9.67573
▁이번	-9.67596
▁거죠	-9.67632
카와	-9.67649
전을	-9.6765
▁지냈다	-9.6778
조선	-9.67876
▁수많은	-9.67933
▁값	-9.67944
▁즉위	-9.67962
▁따뜻한	-9.67978
▁서쪽	-9.6799
▁공부	-9.68006
▁베트남	-9.68034
▁개혁	-9.68043
▁않을	-9.68077
▁선물	-9.6811
드릴게요	-9.68114
핑	-9.68225
▁옛	-9.68227
▁요소	-9.68296
▁상대로	-9.68302
▁특정	-9.68326
▁경영	-9.68331
▁옮겨	-9.68338
▁생성	-9.68344
▁유명	-9.68347
》,	-9.68384
들도	-9.68392
명으로	-9.68393
▁술	-9.68412
▁그린	-9.68413
협회	-9.68491
▁1989	-9.68514
▁추천	-9.68577
벽	-9.68717
▁조성	-9.68731
▁홈	-9.68762
▁하이	-9.68799
원이에요	-9.68807
해주세요	-9.68807
▁선생님	-9.68808
▁범	-9.6885
▁시간은	-9.69054
렬	-9.69132
▁동생	-9.69145
지도	-9.69189
ay	-9.69205
쉬	-9.69209
▁장소	-9.69214
▁자동차	-9.69307
▁매물	-9.69314
▁미국에서	-9.69342
▁오천	-9.69355
im	-9.69358
▁얼굴	-9.69396
▁인식	-9.69507
▁프랑스의	-9.69652
▁작곡	-9.69677
▁어린	-9.69766
▁파견	-9.69958
한테	-9.70002
▁형태로	-9.70049
이죠	-9.70062
▁지하철	-9.70107
▁완성	-9.70118
이야	-9.70173
위원	-9.70183
▁훈련	-9.70185
문을	-9.70193
▁시험	-9.70216
▁가입	-9.70275
▁작용	-9.70297
▁일을	-9.70318
▁시행	-9.70354
전에	-9.704
▁않	-9.70437
▁무기	-9.70459
▁국립	-9.70521
▁토지	-9.70548
▁기존	-9.7063
▁나이	-9.70631
▁해도	-9.70687
▁당신	-9.70761
▁반란	-9.70765
▁금지	-9.7085
돼	-9.70905
쯤	-9.70962
▁쉬	-9.7103
섬	-9.71078
▁정치적	-9.71113
子	-9.71142
▁세력	-9.71203
▁표기	-9.71236
되나요	-9.71246
▁예선	-9.71334
▁병원	-9.71457
▁일제	-9.71466
▁문제가	-9.71479
▁서부	-9.71492
▁작전	-9.71528
▁게이	-9.71548
▁형제	-9.71549
▁붙	-9.71553
▁근처	-9.71569
▁득점	-9.71655
쥐	-9.71671
였	-9.71733
보다는	-9.71747
▁h	-9.71785
ell	-9.71838
▁묘사	-9.71847
▁대표적인	-9.71884
▁사이에서	-9.71884
▁은퇴	-9.71916
▁번역	-9.71918
모토	-9.71935
▁좋아요	-9.71951
▁마찬가지로	-9.71975
▁노동	-9.71976
▁아이스	-9.72065
서를	-9.72156
▁비교	-9.72211
▁나와	-9.72219
▁에이	-9.72233
트는	-9.72253
▁교체	-9.72253
▁뉴	-9.72278
▁부른다	-9.72298
원을	-9.72298
거든요	-9.72355
▁읽	-9.72442
▁무대	-9.72466
인지	-9.72491
▁멤버	-9.72529
대가	-9.72531
▁기사	-9.72543
▁익	-9.7258
하기로	-9.72581
군에	-9.72603
▁약간	-9.72613
▁해안	-9.72662
_3	-9.72753
br	-9.72759
잔	-9.72774
▁북쪽	-9.72786
城	-9.72805
▁마음	-9.72827
한다는	-9.72873
▁장치	-9.72876
▁벨	-9.72895
정을	-9.7297
▁먹을	-9.72971
▁반응	-9.73
▁마리	-9.73048
▁de	-9.7305
▁말을	-9.73074
드리	-9.73168
▁조지	-9.73227
▁소프트웨어	-9.73229
젤	-9.73238
▁시작하였다	-9.73251
단체	-9.73263
▁KBS	-9.73292
▁올리	-9.7331
▁닥터	-9.73324
li	-9.73366
득	-9.73366
▁가게	-9.73441
▁판단	-9.73603
▁라디오	-9.73617
▁선수권	-9.73645
▁소개	-9.73648
갔다	-9.73727
▁쓴	-9.738
▁1945	-9.73816
▁확대	-9.74019
▁대응	-9.7405
라운드	-9.74056
첩	-9.74074
中	-9.74098
기의	-9.74112
▁회장	-9.74119
시키고	-9.74124
▁정상	-9.74132
▁구매	-9.74133
▁장관	-9.74201
▁능	-9.74208
▁제국의	-9.74208
임을	-9.74232
▁남쪽	-9.74308
21	-9.74374
▁쿠폰	-9.74404
▁혼자	-9.74498
▁삼성	-9.74524
▁나타나	-9.74528
▁수입	-9.74545
▁공작	-9.7459
▁발사	-9.74608
랄	-9.74649
▁설정	-9.74657
접	-9.7478
릉	-9.74847
▁단어	-9.7488
▁다리	-9.74901
직을	-9.74942
92	-9.75007
▁싸	-9.75018
▁대해서는	-9.75033
▁p	-9.75051
▁편성	-9.75056
▁만드는	-9.75066
▁근무	-9.75075
텔	-9.75127
▁개통	-9.75149
▁케	-9.75154
▁오른쪽	-9.75284
▁라인	-9.75326
▁투표	-9.75338
▁보면	-9.75373
왔다	-9.75403
십	-9.75425
三	-9.75459
▁있었고	-9.75517
▁제조	-9.75533
▁제거	-9.75537
ent	-9.75601
명이다	-9.75611
학과	-9.75647
▁기록했다	-9.75657
▁트	-9.75668
90	-9.75694
▁보관	-9.75813
▁녹	-9.7582
▁현상	-9.75938
▁환자	-9.75952
였고	-9.75977
▁몇몇	-9.76008
▁[	-9.76028
▁못하고	-9.76049
86	-9.76142
센터	-9.76145
▁상품	-9.76145
▁여행	-9.7617
▁사람은	-9.76184
▁만에	-9.76228
▁경상남도	-9.76273
道	-9.76274
이면	-9.76314
비는	-9.76329
▁자신	-9.76386
용으로	-9.76423
▁알려	-9.76428
▁달라	-9.76508
▁수준	-9.76522
▁오픈	-9.76538
지에	-9.76547
▁저녁	-9.76619
동안	-9.7665
▁제시	-9.76692
▁St	-9.76714
▁조건	-9.76717
객	-9.76759
▁적이	-9.76766
▁규모	-9.76872
▁체결	-9.76903
▁보도	-9.76977
▁사과	-9.77015
99	-9.77067
▁『	-9.771
▁경계	-9.77171
▁이루어져	-9.77217
▁가서	-9.77331
▁연장	-9.77338
▁작성	-9.77374
▁빌	-9.77415
▁이주	-9.77426
되었던	-9.7745
력이	-9.77475
▁달성	-9.77514
▁인천	-9.77566
뉴	-9.77607
▁베이	-9.77636
ry	-9.77783
년대에	-9.77805
▁슈퍼	-9.77818
東	-9.77825
자들이	-9.77868
▁주의	-9.77901
▁직후	-9.77917
▁공사	-9.77925
▁맛	-9.77974
▁왔다	-9.77998
값	-9.77999
▁덕	-9.78023
▁정식	-9.78049
▁1950	-9.78109
▁관련된	-9.78175
▁프레	-9.78199
간의	-9.782
▁요금	-9.78242
▁식민지	-9.7825
▁아뇨	-9.78357
▁죄	-9.78399
▁없습니다	-9.7849
▁전세	-9.78568
▁본래	-9.78603
▁못한	-9.78645
▁종합	-9.78646
▁하계	-9.78659
▁가문	-9.78681
▁다만	-9.78683
▁남편	-9.78739
으로써	-9.78764
▁입단	-9.78838
▁만들어진	-9.78875
되었지만	-9.789
물을	-9.78929
▁되면	-9.7893
all	-9.78958
롱	-9.79031
▁마련	-9.79062
▁모양	-9.7908
▁이사	-9.79113
▁아무	-9.79136
탑	-9.79171
▁싶은데	-9.79232
▁홀	-9.79242
드로	-9.79279
▁취임	-9.79401
▁아니다	-9.7942
▁활용	-9.79433
▁일대	-9.79447
▁낮은	-9.79455
법을	-9.79459
▁중간	-9.79488
▁살아	-9.79503
▁마르	-9.7955
▁지상	-9.79567
▁계승	-9.79607
▁멕시코	-9.79615
▁부정	-9.79617
▁제기	-9.79628
▁오스트레일리아	-9.79672
▁뭐예요	-9.79716
사는	-9.79767
▁미리	-9.79793
▁최근	-9.79812
▁데이터	-9.79817
▁위치하고	-9.79834
▁보수	-9.79835
▁벤	-9.79845
88	-9.79852
48	-9.79902
▁딸기	-9.79913
맥	-9.79924
만이	-9.79951
85	-9.79981
받았다	-9.80006
▁촬영	-9.8002
▁g	-9.80024
▁강한	-9.80029
딘	-9.80069
▁박사	-9.80092
빙	-9.80109
▁소재	-9.80117
▁사용된다	-9.80141
었	-9.80221
▁이래	-9.80235
▁콘	-9.80291
▁광주	-9.80293
▁재판	-9.80297
▁받	-9.80306
▁품	-9.80327
▁효	-9.80333
▁1986	-9.80371
▁유일한	-9.80407
▁1987	-9.80431
▁근처에	-9.80438
딩	-9.80503
없이	-9.8059
함을	-9.80717
▁설치되어	-9.80794
욕	-9.80841
▁신문	-9.80846
▁종료	-9.80864
봐	-9.80932
▁괜찮아요	-9.81029
▁본선	-9.81092
▁효과	-9.81104
▁지금은	-9.81134
베르	-9.81199
▁엔	-9.81258
시즌	-9.81272
▁폐지	-9.81281
89	-9.81295
▁미술	-9.8133
롤	-9.81382
▁파일	-9.81385
▁각종	-9.8139
았	-9.81409
▁보존	-9.81473
하나	-9.81477
▁주인공	-9.81478
▁블랙	-9.81487
▁사람들	-9.81498
▁고기	-9.81514
큐	-9.81644
▁굴	-9.81668
랜	-9.81676
킨	-9.81703
했기	-9.81737
ul	-9.8174
▁요새	-9.8179
주는	-9.81798
▁사용자	-9.81807
▁좌	-9.81822
35	-9.81911
떡	-9.81983
되자	-9.82011
대회	-9.82027
▁찬	-9.82078
학적	-9.82281
▁압	-9.82299
95	-9.8231
성과	-9.82352
▁대회에서	-9.82357
졌고	-9.82392
▁천황	-9.82416
▁국회	-9.82485
푸	-9.82544
들로	-9.8257
▁되지	-9.8258
om	-9.82638
위로	-9.82749
잖아	-9.82807
安	-9.82943
▁빨리	-9.82966
칼	-9.8299
▁출생	-9.83101
▁신경	-9.83224
닌	-9.83246
▁기반	-9.83337
▁식물	-9.83379
▁록	-9.8338
▁철학	-9.83393
어서	-9.83401
▁국왕	-9.83412
▁코드	-9.83452
▁대륙	-9.83468
▁입학	-9.83486
▁측정	-9.83631
▁누구	-9.83649
섭	-9.83707
▁폴	-9.83748
▁면적은	-9.83784
널	-9.83866
벤	-9.83869
스케	-9.83872
있	-9.83876
▁감소	-9.83948
▁괜찮	-9.83977
▁실행	-9.84021
▁충돌	-9.8405
스티	-9.84051
▁해외	-9.84084
▁70	-9.84187
데요	-9.84223
▁집중	-9.84287
▁더불어	-9.84346
▁매장	-9.84371
셔야	-9.84438
▁왼쪽	-9.84468
▁제정	-9.84575
혹	-9.84582
둥	-9.84719
▁기억	-9.84748
얼	-9.84827
▁유리	-9.84862
▁팬	-9.84874
▁브랜드	-9.84877
▁원정	-9.84885
▁종목	-9.84891
▁Y	-9.84893
▁아일랜드	-9.85069
▁검사	-9.85101
▁쓸	-9.85131
▁파마	-9.85145
▁경기를	-9.85151
였으며	-9.85182
덴	-9.85193
▁운	-9.85215
os	-9.85225
°	-9.8524
▁1984	-9.85268
▁않아요	-9.85283
▁경기장	-9.85403
▁치즈	-9.85406
끼	-9.8544
▁w	-9.85462
▁그리	-9.85543
天	-9.8559
▁수술	-9.85641
98	-9.85659
▁만들었다	-9.857
76	-9.85718
▁문제를	-9.8574
▁떨어져	-9.85771
▁화학	-9.85833
시킨	-9.85854
kg	-9.85858
▁대사	-9.85932
하세요	-9.86079
24	-9.86177
▁나는	-9.86259
▁방영	-9.86309
▁돌아가	-9.86314
트라	-9.86314
확	-9.86346
ow	-9.86386
▁층	-9.864
》()	-9.86425
▁전달	-9.86462
▁토요일	-9.86499
▁시부터	-9.86551
▁앤	-9.86571
▁옷은	-9.86627
▁이용하여	-9.86638
관을	-9.86677
▁받을	-9.86707
감을	-9.868
▁나서	-9.8682
▁실제로	-9.86832
▁어디에	-9.86854
▁콜라	-9.8688
56	-9.86903
사와	-9.8691
▁괴	-9.86919
▁전시	-9.86929
▁오사카	-9.8694
▁구역	-9.86943
ine	-9.86959
▁불린다	-9.86972
으므로	-9.86974
(18	-9.86978
▁개정	-9.87051
▁클	-9.87082
▁센터	-9.87113
▁다카	-9.87152
▁경상북도	-9.87169
▁1985	-9.87191
▁교환	-9.8722
▁위치해	-9.87221
▁가는	-9.8724
▁남북	-9.87283
▁흑	-9.87328
▁묘	-9.87335
77	-9.87436
▁출발	-9.87445
▁외부	-9.87461
▁겪	-9.87501
▁궁	-9.87507
▁넘어	-9.87544
사에	-9.87554
학자	-9.8757
南	-9.87635
하려는	-9.87663
ly	-9.87806
칙	-9.87806
▁일어난	-9.87918
▁여름	-9.87931
▁최고의	-9.87971
천만	-9.8799
▁투자	-9.88007
▁정부는	-9.88043
▁뿐만	-9.88109
성은	-9.88135
▁영토	-9.88144
서는	-9.88147
콜	-9.88276
▁소리	-9.88318
v	-9.88338
▁사실을	-9.88345
▁역임	-9.88405
▁바르	-9.88542
시마	-9.88559
01	-9.88582
寺	-9.88582
▁시기에	-9.88653
▁명령	-9.88685
▁질량	-9.88779
▁구조를	-9.88787
▁디지털	-9.88817
▁올랐다	-9.88822
과학	-9.88836
▁비디오	-9.88859
▁선수들	-9.88868
죽	-9.88875
▁개선	-9.88886
▁인수	-9.88903
펜	-9.88915
ll	-9.88921
▁협	-9.88954
원으로	-9.88972
한다고	-9.89017
▁관계를	-9.89027
▁늘	-9.89028
▁재직	-9.89035
▁사람들은	-9.89134
▁나와요	-9.89144
23	-9.89166
事	-9.89167
▁벽	-9.89232
▁하시면	-9.89275
▁팀의	-9.89312
▁원소	-9.89317
게요	-9.89324
프트	-9.89358
징	-9.89366
관리	-9.89397
▁전반	-9.89483
정보	-9.89537
▁자동	-9.89581
68	-9.8962
▁전투에서	-9.89635
▁매매	-9.89656
▁저항	-9.89675
▁합류	-9.89721
털	-9.89736
▁상황	-9.89737
부의	-9.89795
▁밑	-9.8986
점이	-9.89887
▁국경	-9.89891
氏	-9.89931
▁호텔	-9.89979
▁둔	-9.90002
▁올라가	-9.90031
▁베르	-9.90035
▁영상	-9.90036
관계	-9.90047
▁예상	-9.90104
▁협력	-9.90131
)"	-9.90214
▁계열	-9.90236
▁전환	-9.9025
▁비행	-9.90338
부를	-9.90344
▁해체	-9.90367
▁의미한다	-9.90447
ill	-9.90457
▁주는	-9.9047
▁성격	-9.90499
lo	-9.90519
▁뇌	-9.90569
▁절대	-9.90591
스카	-9.9062
먹	-9.90731
▁주었다	-9.90754
▁바탕으로	-9.90794
▁강조	-9.90811
▁무렵	-9.90844
▁자격	-9.90863
조사	-9.90872
▁이집트	-9.90881
메이	-9.90881
델	-9.90929
▁여전히	-9.90973
▁그건	-9.90975
졌	-9.90987
거에요	-9.91022
간다	-9.91106
▁우선	-9.91116
▁정권	-9.91186
▁중단	-9.91196
비가	-9.91205
▁우리가	-9.91298
▁기여	-9.91301
▁체포	-9.91311
부는	-9.91321
▁반면	-9.91321
▁획득	-9.91327
▁쉽게	-9.91343
▁컵	-9.91362
▁300	-9.91363
하신	-9.91403
▁맡	-9.91412
핀	-9.91417
같은	-9.91472
▁목표	-9.91476
▁대해서	-9.91517
▁내에서	-9.9165
▁하기	-9.9166
▁수용	-9.91668
▁주택	-9.91718
구요	-9.91728
월까지	-9.91784
하실	-9.91927
리오	-9.92063
▁인기	-9.92064
경제	-9.92128
▁t	-9.92145
▁32	-9.92167
▁수정	-9.92177
法	-9.92213
co	-9.92267
세기에	-9.92272
ve	-9.92306
▁추정	-9.92306
▁증명	-9.92323
▁기존의	-9.92348
선이	-9.92381
▁젊은	-9.9245
리고	-9.92531
▁내일	-9.92594
08	-9.92663
교회	-9.92678
▁l	-9.92681
平	-9.92687
▁정착	-9.92704
멘	-9.92708
▁국회의원	-9.92721
▁피부	-9.92863
로스	-9.92875
라고도	-9.92891
▁제외한	-9.92975
▁방향	-9.93008
세대	-9.93012
and	-9.93077
公	-9.93092
▁거에요	-9.93111
화된	-9.93171
▁원이요	-9.9327
04	-9.93284
▁지식	-9.93297
▁되었으며	-9.933
만을	-9.93354
폰	-9.93371
▁양식	-9.93387
▁광고	-9.93414
룸	-9.93443
▁묻	-9.93456
▁성립	-9.93466
산업	-9.93506
릿	-9.93522
▁전혀	-9.93559
트를	-9.93586
▁내각	-9.93597
바이	-9.93622
넷	-9.93623
▁차이가	-9.93659
▁용어	-9.93664
▁있었지만	-9.937
▁보이는	-9.93721
▁월드	-9.93816
▁지역을	-9.93855
▁잠시	-9.93865
▁궤도	-9.93923
=	-9.93937
국의	-9.93953
▁갑	-9.93991
▁1982	-9.94126
루스	-9.94264
▁있었	-9.94304
▁그해	-9.94315
▁학문	-9.94329
▁명예	-9.94373
부에	-9.944
▁않았	-9.94495
ight	-9.94531
고요	-9.94544
58	-9.94561
풀	-9.94597
▁1000	-9.94603
▁행위	-9.94651
▁있죠	-9.94676
단의	-9.94724
▁표면	-9.94741
되었는데	-9.94774
치고	-9.94777
화가	-9.94861
▁허용	-9.94897
셀	-9.94909
성의	-9.94936
▁자리를	-9.94948
▁헬	-9.95029
▁일반적인	-9.95046
▁회의	-9.95082
07	-9.95127
엇	-9.95145
人	-9.95151
무라	-9.95192
▁칭	-9.95214
57	-9.95316
▁끼	-9.95353
▁엄	-9.95377
▁거두	-9.95394
▁기록을	-9.95437
▁녹음	-9.95466
▁잡지	-9.9549
05	-9.95611
▁원인	-9.95695
▁기후	-9.9573
93	-9.95744
▁크림	-9.95748
▁옆에	-9.95775
書	-9.95846
▁엄마	-9.95881
퀴	-9.95889
▁상징	-9.95962
▁스웨덴	-9.9601
▁여겨	-9.96028
▁소수	-9.96044
▁근거	-9.96058
▁라이	-9.96064
되면	-9.96089
제가	-9.96116
하나요	-9.96118
베이	-9.96152
▁기능을	-9.96172
핵	-9.96215
▁위의	-9.9622
65	-9.96223
▁1983	-9.96281
량이	-9.96328
▁생활을	-9.96372
▁합병	-9.96379
▁폰	-9.96392
▁부르	-9.96407
▁공급	-9.96446
음을	-9.96466
닉	-9.96466
▁재정	-9.96522
▁위협	-9.96539
치를	-9.96564
87	-9.9657
▁대기	-9.96599
해도	-9.96627
▁유로	-9.96652
▁동맹	-9.96657
"(	-9.96662
▁다니	-9.96666
▁하자	-9.9668
▁MBC	-9.96705
▁80	-9.96713
▁35	-9.96714
려면	-9.96723
었는데	-9.96774
▁올려	-9.96783
시킬	-9.96821
제도	-9.96829
▁전라남도	-9.9683
▁받는	-9.96867
▁삶	-9.96868
▁은하	-9.96872
75	-9.96947
▁외에	-9.9697
▁인한	-9.96971
78	-9.97039
▁장기	-9.97045
비아	-9.97056
《	-9.97062
)》	-9.97111
▁맨	-9.97245
▁조선민주주의인민공화국	-9.97281
5%	-9.9731
▁통하여	-9.97311
선거	-9.97371
▁경우도	-9.97376
▁소유	-9.97446
▁예수	-9.97493
22	-9.97523
67	-9.97527
▁확보	-9.97606
▁아니면	-9.97627
▁전사	-9.97661
▁지속	-9.9771
린다	-9.97717
▁맞아요	-9.97719
굴	-9.97724
수로	-9.97743
▁성적	-9.97898
▁빅	-9.97903
나는	-9.98007
르는	-9.98016
▁터키	-9.98043
▁장면	-9.98047
▁여기는	-9.98052
ge	-9.98088
▁의해서	-9.98116
지게	-9.98118
▁소장	-9.98153
일본	-9.98258
▁죽은	-9.98293
▁봐	-9.98303
소를	-9.98303
ac	-9.98316
타이	-9.98316
▁갖춘	-9.98363
비치	-9.98372
▁채택	-9.98386
▁nbsp	-9.98388
▁현실	-9.98399
그룹	-9.98451
▁짧은	-9.98479
▁승격	-9.9848
찌	-9.98512
man	-9.98516
200	-9.98573
▁있으면	-9.98582
▁의식	-9.98586
45	-9.98588
셨	-9.986
▁탑재	-9.98604
▁마사	-9.98611
▁연대	-9.98651
▁세워	-9.98652
▁붕괴	-9.98678
▁간의	-9.9868
▁지도자	-9.98722
▁주시겠어요	-9.98748
▁귀국	-9.98824
▁n	-9.98843
▁주제	-9.98875
라스	-9.98898
▁속에	-9.98908
▁편집	-9.98933
납	-9.98945
▁들어가요	-9.98969
원은	-9.99015
▁삼겹살	-9.99061
▁여기에	-9.99167
▁시작되었다	-9.99168
▁얘기	-9.99216
이라고도	-9.99232
▁무역	-9.99234
▁미사일	-9.99251
군과	-9.99282
트리	-9.99293
▁색깔	-9.99309
26	-9.99315
▁온도	-9.99348
▁옆	-9.99349
▁넓	-9.9943
ce	-9.99567
ph	-9.99693
▁홍콩	-9.99776
로써	-9.99801
미터	-9.99823
▁건강	-9.99874
▁피해	-9.99889
▁쌓	-9.9989
이므로	-9.99987
▁민주	-10.0002
장의	-10.0007
우리	-10.0015
▁루이	-10.0017
▁일요일	-10.0017
▁이미지	-10.0022
연구	-10.0024
▁회복	-10.0024
죄	-10.0025
▁상호	-10.0027
적이고	-10.0029
▁외교	-10.003
혁	-10.0031
▁전개	-10.0032
ex	-10.0035
▁공군	-10.0036
▁계약을	-10.0037
▁전차	-10.0037
▁무장	-10.0043
▁사용하여	-10.0068
▁세운	-10.0076
세계	-10.008
▁외에도	-10.008
▁강력한	-10.0085
▁기원	-10.0086
▁건조	-10.0087
ta	-10.0088
▁매년	-10.009
▁활	-10.0094
▁관심을	-10.0095
▁덴마크	-10.0097
세이	-10.0098
▁이곳	-10.0098
었던	-10.0104
▁역할	-10.0105
특	-10.0106
▁강제	-10.0111
59	-10.0113
▁고객님	-10.0114
▁승리를	-10.0116
컬	-10.0117
▁마리아	-10.012
27	-10.012
계의	-10.0121
▁근대	-10.0128
▁위원회	-10.0129
▁1979	-10.0131
시설	-10.0134
▁속에서	-10.014
▁뒤를	-10.014
28	-10.014
▁가죽	-10.0141
宗	-10.0144
▁경주	-10.0155
96	-10.0155
▁사실상	-10.0156
ma	-10.0162
▁다르	-10.017
▁네트워크	-10.0172
▁지진	-10.0172
▁등에서	-10.0174
기와	-10.0179
▁되는데	-10.0181
▁신호	-10.0183
▁주장했다	-10.0186
▁사회주의	-10.0186
▁지점	-10.019
영화	-10.0191
ate	-10.0195
▁공장	-10.0196
▁숨	-10.02
▁태어난	-10.0202
▁침공	-10.0205
웨이	-10.0205
▁족	-10.021
▁수립	-10.0212
▁폭발	-10.0212
▁임시	-10.0215
▁성우	-10.0217
82	-10.0218
▁양자	-10.0219
났	-10.0219
▁정부의	-10.0222
삭	-10.0224
▁점차	-10.023
▁앙	-10.0232
▁분포	-10.0232
學	-10.0233
▁포르투갈	-10.0235
▁페이	-10.0237
▁본관은	-10.0238
ard	-10.0241
짜리	-10.0241
▁제임스	-10.0242
▁출신의	-10.0243
라도	-10.0243
▁트리	-10.0245
to	-10.0245
▁장식	-10.0255
63	-10.0256
▁스위스	-10.0261
83	-10.0267
▁있었는데	-10.0268
▁증거	-10.0274
▁1981	-10.0274
▁임대	-10.0275
▁1972	-10.0275
▁초등학교이다	-10.028
64	-10.0281
72	-10.0286
▁대수	-10.0288
해주	-10.0294
▁신학	-10.03
틸	-10.03
ho	-10.0311
▁후기	-10.0316
인분	-10.0319
스턴	-10.0325
장에	-10.0326
+	-10.0327
회를	-10.0333
▁끊	-10.0333
▁먹고	-10.0335
▁웹	-10.0343
뿐	-10.0346
▁뉴스	-10.0349
▁대립	-10.035
▁이후에	-10.0356
ant	-10.0363
▁타고	-10.0368
▁여섯	-10.037
▁가방은	-10.0376
▁충청남도	-10.0381
09	-10.0386
97	-10.0389
▁대형	-10.0391
▁강원도	-10.0392
na	-10.0397
▁사용한	-10.04
▁바꾸	-10.0408
▁해방	-10.0409
▁가톨릭	-10.0411
▁사장님	-10.0412
▁정보를	-10.0414
▁공격을	-10.0414
▁자신을	-10.0414
74	-10.0417
해졌다	-10.0417
▁빼	-10.0418
버리	-10.0418
em	-10.0419
▁플레이	-10.0426
▁이후로	-10.0426
06	-10.0431
▁해주	-10.0432
io	-10.0435
낸	-10.0442
비를	-10.0447
▁이끄는	-10.0449
폴	-10.0449
께	-10.0455
94	-10.0457
▁넓은	-10.0458
▁전역	-10.0461
▁1973	-10.0463
▁관찰	-10.0464
▁콩	-10.0465
만큼	-10.0466
하시	-10.0468
받	-10.0469
▁승인	-10.0471
개국	-10.0472
-0	-10.0475
▁기대	-10.048
▁사용되는	-10.0481
사이	-10.0486
뢰	-10.0487
▁사후	-10.049
공사	-10.0493
제는	-10.0496
기술	-10.0505
▁사람을	-10.0507
▁많	-10.051
▁개편	-10.0512
▁이전에	-10.0522
째	-10.0522
▁인기를	-10.0526
▁비교적	-10.0534
머니	-10.0537
▁만큼	-10.0539
69	-10.0541
느	-10.0545
호를	-10.0545
正	-10.0549
▁클라	-10.0552
▁학생들	-10.0555
▁부상	-10.0555
은행	-10.0555
겠다	-10.0556
▁임명되었다	-10.0558
▁주실	-10.0564
▁헝가리	-10.0565
▁이용해	-10.0566
▁방식으로	-10.0567
니스	-10.058
▁범죄	-10.0581
▁뛰어난	-10.0585
▁때에는	-10.0586
연대	-10.0586
▁채널	-10.0587
▁뿌리	-10.0587
▁오브	-10.0588
▁당선	-10.0588
▁고전	-10.0589
시부터	-10.0592
ag	-10.0592
▁고구려	-10.0597
▁지키	-10.0598
▁항성	-10.06
▁약속	-10.0603
솔	-10.0603
34	-10.0604
▁재료	-10.0605
est	-10.0607
졌으며	-10.061
▁구입	-10.0611
▁인사	-10.0612
세포	-10.0613
▁사회적	-10.0613
회사	-10.0618
거야	-10.0618
▁핀란드	-10.0623
▁힘을	-10.0626
▁한다고	-10.0627
▁팩	-10.0631
55	-10.0631
대는	-10.064
▁잎	-10.0644
▁은행	-10.0645
▁논문	-10.0649
▁태어나	-10.0651
▁기획	-10.0657
▁종종	-10.0658
백만	-10.0662
▁미래	-10.0664
▁건너	-10.0667
▁이것이	-10.0668
▁세웠다	-10.0673
차례	-10.0674
▁간주	-10.0675
▁식사	-10.0678
▁명이	-10.0687
▁시위	-10.069
▁규	-10.069
▁저장	-10.0691
53	-10.0694
▁이루어진	-10.0696
밍	-10.0701
▁발표했다	-10.0703
▁깨	-10.0706
▁거기	-10.0707
▁전용	-10.0711
▁현금영수증	-10.0713
▁훨씬	-10.0713
▁참석	-10.0714
홀	-10.0715
▁왕조	-10.0719
32	-10.0727
쟁	-10.0729
최	-10.073
▁특수	-10.0731
29	-10.0732
▁적은	-10.0736
79	-10.0742
BS	-10.0746
▁죽음	-10.0747
62	-10.0748
컨	-10.0752
부대	-10.0752
▁개봉	-10.0754
퇴	-10.0758
원의	-10.0758
▁거래	-10.0763
▁했지만	-10.0766
▁살해	-10.0766
37	-10.0768
차원	-10.0775
▁놀	-10.0777
▁모습	-10.0778
▁In	-10.0781
▁짓	-10.0786
▁블	-10.0787
▁들어간	-10.0791
▁농업	-10.0794
▁숲	-10.0797
81	-10.0799
▁중심지	-10.08
sh	-10.0804
▁사이즈가	-10.0804
▁감독의	-10.0807
▁어깨	-10.0808
스테	-10.0808
▁발견된다	-10.0811
▁저기	-10.0817
▁필리핀	-10.0818
▁범위	-10.0819
ap	-10.0822
_4	-10.0825
▁태평양	-10.0828
▁생물	-10.083
▁전력	-10.0838
▁비난	-10.0842
▁설립된	-10.0844
놀	-10.0847
36	-10.0848
▁통신	-10.0858
연합	-10.086
▁비밀	-10.0861
▁에어	-10.0861
▁소스	-10.0865
누스	-10.0866
▁운전	-10.0867
기간	-10.0874
행위	-10.0875
▁시대의	-10.0876
▁아이들	-10.0877
▁사용하고	-10.0879
겠	-10.0879
▁징	-10.0892
▁걸려요	-10.0893
61	-10.0895
마리	-10.0899
▁향상	-10.0904
카이	-10.0908
▁이루어지	-10.0909
▁비용	-10.091
단을	-10.0913
분에	-10.0931
인들이	-10.0939
부가	-10.094
▁밝혀	-10.0952
▁주민	-10.0953
一	-10.0957
▁얼	-10.0961
▁평양	-10.0968
켈	-10.0969
▁불가능	-10.0969
元	-10.0972
▁창설	-10.0975
▁확정	-10.0979
▁메이	-10.0987
장에서	-10.0989
층에	-10.099
됐	-10.0992
음악	-10.0994
66	-10.0997
▁먹는	-10.0999
▁♪	-10.1007
▁대규모	-10.101
▁주교	-10.1012
▁반도	-10.1016
川	-10.1017
▁1920	-10.1019
<	-10.1023
▁생긴	-10.1025
▁이십	-10.1028
▁원칙	-10.1031
▁도움을	-10.1031
▁크리스	-10.1034
▁관할	-10.1035
스토	-10.1038
▁할게요	-10.1041
논	-10.1041
시장	-10.1042
▁지역은	-10.1045
머리	-10.1046
▁유명하다	-10.1047
▁1974	-10.1048
▁중화인민공화국	-10.1058
제로	-10.1058
부로	-10.1059
▁민주당	-10.1062
▁최소	-10.1065
사이즈	-10.1069
▁있었으나	-10.107
▁하늘	-10.107
덤	-10.1072
▁귀족	-10.1074
정책	-10.1074
▁항복	-10.1081
어를	-10.1082
BC	-10.1086
義	-10.1087
▁위치한다	-10.1088
▁우유	-10.1088
겼다	-10.1102
▁유학	-10.1103
▁얻어	-10.1104
테르	-10.1105
타르	-10.1111
▁남아있	-10.1112
▁류	-10.1112
▁수록	-10.1113
vi	-10.1115
▁됐다	-10.1116
▁있었으며	-10.112
▁한국의	-10.1122
▁통제	-10.1122
▁일본군	-10.1124
▁욕	-10.1132
ab	-10.1134
데스	-10.1134
몰	-10.1142
ome	-10.1143
▁어린이	-10.1145
한국	-10.1148
대에	-10.1158
▁꿈	-10.1162
▁담아	-10.1163
▁발매되었다	-10.1163
켓	-10.1169
잖아요	-10.1172
▁피아노	-10.1177
▁저희가	-10.1179
▁주변에	-10.1184
47	-10.1185
▁선고	-10.1195
▁1930	-10.1199
▁윈도우	-10.1202
▁드시고	-10.1204
▁제품이	-10.1204
▁꾸	-10.1206
▁내용을	-10.1209
지지	-10.121
▁살고	-10.1211
시킨다	-10.1211
▁암살	-10.1212
▁파이	-10.1212
▁묵	-10.1216
개발	-10.1217
▁시대에	-10.1218
적이	-10.1219
one	-10.1224
냈	-10.1225
▁밥	-10.1228
▁아르헨티나	-10.123
ment	-10.1236
▁인간의	-10.1237
▁오랜	-10.1238
▁사이즈는	-10.1241
▁카를	-10.1244
▁흥	-10.1244
시의	-10.1247
▁팀은	-10.1249
31	-10.1253
▁흔히	-10.1255
펠	-10.1256
▁군주	-10.1258
▁감정	-10.126
▁이벤트	-10.1261
▁기자	-10.1264
▁시간에	-10.1267
▁자치	-10.1269
▁매일	-10.1273
이기	-10.1276
체를	-10.1281
▁써	-10.1282
▁동계	-10.1283
곰	-10.1289
▁빠져	-10.1292
▁1976	-10.1294
▁1978	-10.1297
73	-10.1298
▁말이	-10.1302
시오	-10.1304
▁장착	-10.1306
no	-10.1306
▁장애	-10.1307
▁비율	-10.1308
▁헤이	-10.131
▁연맹	-10.1314
▁떠	-10.1315
▁합의	-10.1316
▁아니고	-10.1317
▁제작된	-10.1318
▁모스크바	-10.1319
▁II	-10.132
물이	-10.1321
▁고정	-10.1323
인들은	-10.1334
▁사용되었다	-10.1335
▁능력	-10.1335
▁포함되어	-10.1336
Z	-10.1343
▁갔다	-10.1343
▁숙박	-10.1346
▁전략	-10.1348
되었을	-10.1351
▁이스라엘	-10.1351
량은	-10.1357
▁어떠세요	-10.1358
▁1940	-10.1359
하였지만	-10.1362
▁생기	-10.1363
▁숫자	-10.1368
▁탄생	-10.137
문학	-10.1375
▁곳이	-10.1376
▁그게	-10.1377
▁통한	-10.1379
▁전해	-10.1381
스코	-10.1382
타운	-10.1382
▁온라인	-10.1383
▁몽골	-10.1384
▁메이저	-10.1385
▁재산	-10.1385
지방	-10.1387
▁했	-10.1389
▁보급	-10.139
이었고	-10.1392
ST	-10.1397
▁중요	-10.1401
▁업무	-10.1402
▁공공	-10.1403
▁신청	-10.1404
▁장비	-10.1407
▁월세	-10.1412
국가	-10.1413
▁받지	-10.1418
더라도	-10.1418
▁착	-10.1419
▁건데	-10.1419
▁저지	-10.142
자들	-10.1422
에게서	-10.1427
늘	-10.1428
▁진화	-10.1429
관으로	-10.143
▁사람의	-10.1431
▁납	-10.1436
∼	-10.1437
▁앉	-10.1437
▁솔로	-10.1438
▁싶어	-10.1439
▁아마	-10.144
바르	-10.1441
▁중반	-10.1442
▁PC	-10.1445
▁불리	-10.1448
ha	-10.1454
구를	-10.1457
od	-10.146
▁포기	-10.1462
략	-10.1467
▁1963	-10.1468
▁전공	-10.1468
렸	-10.1473
▁모르	-10.1475
▁일단	-10.1476
셔서	-10.1478
▁부모	-10.1483
▁1975	-10.1488
디아	-10.1488
▁과정을	-10.1496
38	-10.1496
33	-10.1499
▁띠	-10.1499
▁순위	-10.1499
▁1971	-10.1499
▁전후	-10.1502
만한	-10.1515
・	-10.1516
▁앞서	-10.1518
▁취급	-10.1523
계를	-10.1523
▁대상으로	-10.1523
▁양성	-10.1535
▁백제	-10.1535
▁들어오	-10.1546
밥	-10.1547
▁빨	-10.1547
▁가능할까요	-10.155
▁시간을	-10.1553
▁괜찮은	-10.1555
▁협회	-10.1556
▁구성된	-10.156
돼요	-10.156
▁시각	-10.1561
▁지내	-10.1563
드라	-10.1566
長	-10.1566
▁그에게	-10.1572
옹	-10.1576
▁지시	-10.1577
▁투입	-10.1577
▁등은	-10.158
▁통해서	-10.158
▁그것은	-10.1581
▁현금으로	-10.1582
세에	-10.1586
섰	-10.1586
▁윌리엄	-10.1593
▁하면서	-10.1595
▁일정	-10.16
▁역사상	-10.1601
▁인하여	-10.1601
▁남은	-10.1606
▁1968	-10.1609
롭	-10.1612
▁끝난	-10.1614
▁북쪽으로	-10.1614
▁솔	-10.1618
▁사이트	-10.162
▁특성	-10.1621
멜	-10.1628
▁노예	-10.1628
▁완전	-10.1628
ive	-10.1629
예술	-10.1633
시로	-10.1635
▁고향	-10.1637
▁쓰는	-10.1637
▁뒷	-10.164
▁바지	-10.1641
정도	-10.1644
민족	-10.1646
▁전주	-10.1649
▁단위	-10.1652
체의	-10.1655
량을	-10.1657
라면	-10.1663
▁순서	-10.1665
▁알리	-10.1666
룩	-10.1666
▁핵심	-10.1667
▁델	-10.1667
▁대략	-10.1669
91	-10.1674
▁사례	-10.1675
▁흡수	-10.1675
이드	-10.1687
하고자	-10.1687
지원	-10.1688
▁집안	-10.1691
▁부탁	-10.1693
▁중국의	-10.1693
리스트	-10.1695
▁오히려	-10.1696
▁얻었다	-10.1699
03	-10.1705
é	-10.1707
▁일본에서	-10.1708
분이	-10.171
▁이용할	-10.1711
▁지대	-10.1713
들어	-10.1716
▁1969	-10.1722
▁맺	-10.1725
▁발표한	-10.1727
▁모리	-10.1729
부분	-10.1729
▁동일한	-10.1738
▁단지	-10.1741
▁되세요	-10.1746
▁구별	-10.1747
▁잘못	-10.1751
▁테스트	-10.1752
84	-10.1752
로서의	-10.1753
▁맡아	-10.1754
▁입력	-10.1755
▁부근	-10.1755
즐	-10.1756
▁와서	-10.1761
▁그때	-10.1768
46	-10.1768
▁도망	-10.1768
▁외국	-10.1771
▁참여하였다	-10.1776
▁팀이	-10.1782
&	-10.1785
▁현재까지	-10.1787
▁되면서	-10.1789
▁초등학교	-10.179
▁내리	-10.1791
▁형태의	-10.1792
▁원자	-10.18
▁연극	-10.18
▁들어서	-10.1803
▁오래된	-10.1809
▁신앙	-10.1809
선은	-10.181
▁다르다	-10.1811
▁45	-10.1813
▁&	-10.1814
역으로	-10.1814
石	-10.1816
▁미군	-10.1817
▁했으나	-10.182
▁곳에서	-10.1825
高	-10.1832
▁쌀	-10.1836
금을	-10.184
▁데이	-10.1842
ist	-10.1845
하시는	-10.1846
▁1948	-10.1848
대한	-10.1849
룬	-10.1849
Q	-10.1858
▁아키	-10.1861
▁거절	-10.1865
기업	-10.1865
39	-10.1867
▁펜	-10.1867
▁플	-10.1872
▁높아	-10.1881
이던	-10.1883
▁나치	-10.1889
전쟁	-10.1892
짐	-10.1894
▁생명	-10.1899
▁돌아	-10.1902
▁때문	-10.1908
슬라	-10.191
▁동료	-10.1911
▁연합군	-10.1913
▁Re	-10.1915
▁주차장	-10.192
프리	-10.192
▁건국	-10.1921
▁덜	-10.1922
▁상업	-10.1923
he	-10.1926
쁘	-10.1933
▁집에	-10.1937
▁당시의	-10.1941
▁경우에	-10.1942
▁보였다	-10.1948
▁브리	-10.1949
험	-10.195
따	-10.195
▁육상	-10.195
▁이후에는	-10.1952
▁성분	-10.1956
▁맡고	-10.196
▁대비	-10.197
프라	-10.1975
▁추정된다	-10.1979
▁권리	-10.1979
▁You	-10.1981
종의	-10.1982
▁손님	-10.1989
▁교토	-10.1996
▁잡아	-10.1996
곳	-10.1997
▁이끌고	-10.1999
▁돼지고기	-10.2
▁대항	-10.2004
빵	-10.2006
킬	-10.2006
▁권력	-10.2007
▁시티	-10.2008
-3	-10.2009
▁없다고	-10.2015
▁이것	-10.2018
▁때부터	-10.2021
▁사무	-10.2022
드레	-10.2023
art	-10.2026
함에	-10.2032
▁점에서	-10.204
▁결제는	-10.204
po	-10.2041
시키	-10.2044
▁for	-10.2049
▁동일	-10.2051
▁멸망	-10.2054
네스	-10.2057
륜	-10.2058
▁90	-10.2061
▁유도	-10.2075
▁1946	-10.2076
▁금액	-10.2076
부사	-10.2079
▁언	-10.2082
▁짬뽕	-10.2082
권이	-10.2084
▁저서	-10.209
▁같은데	-10.2093
피아	-10.2094
▁방면	-10.2096
▁잠시만	-10.2099
별로	-10.2102
▁미치	-10.2103
▁학원	-10.2106
로운	-10.2111
▁맛있어요	-10.2112
▁전설	-10.2113
당한	-10.2117
▁5000	-10.2118
녕	-10.2119
리와	-10.2121
▁것들	-10.2123
▁공주	-10.2126
▁맛있	-10.2131
▁d	-10.2132
로도	-10.2133
▁주소	-10.2136
▁내에	-10.2137
54	-10.2138
▁위성	-10.2139
▁일으키	-10.2144
있어요	-10.2145
44	-10.2147
▁별로	-10.2149
성에	-10.2151
▁부터	-10.2156
단에	-10.2158
▁화장실	-10.2159
▁성질	-10.216
▁음력	-10.2169
▁수비	-10.2172
▁반복	-10.2179
▁들어가는	-10.2179
▁늦	-10.2182
▁플레이어	-10.2182
▁산맥	-10.2182
▁스튜디오	-10.2183
成	-10.2185
▁차트	-10.2194
der	-10.2196
▁했고	-10.2196
▁관할한다	-10.2198
▁우크라이나	-10.2198
시고	-10.22
▁책임	-10.2202
케이	-10.2203
'(	-10.2204
▁가능성이	-10.2205
▁강의	-10.2207
프레	-10.2208
府	-10.2212
▁고문	-10.2212
▁인근	-10.2213
02	-10.2216
▁세계에서	-10.2217
공화국	-10.2227
▁포위	-10.223
49	-10.223
사단	-10.2231
▁인민	-10.2232
ub	-10.2234
구의	-10.2235
▁청소년	-10.224
▁털	-10.2241
▁알게	-10.2241
자들의	-10.2244
▁만족	-10.2245
▁방출	-10.2246
▁Z	-10.2248
▁제출	-10.2251
▁해상	-10.2255
개를	-10.2257
▁be	-10.2258
▁넘는	-10.2263
▁그레이	-10.2264
▁플라	-10.2266
▁뭘	-10.227
베리	-10.228
▁보냈다	-10.2281
▁한때	-10.2282
▁판결	-10.2284
▁습	-10.2285
▁하게	-10.2287
▁지닌	-10.2292
빛	-10.2301
종으로	-10.2305
스러운	-10.2309
궤	-10.231
▁사단	-10.2311
▁때에	-10.2311
관이	-10.2314
▁사무실	-10.232
▁1977	-10.2323
▁끝내	-10.2324
닐	-10.2324
겠네요	-10.2325
주를	-10.2327
사건	-10.2332
▁찍	-10.2333
▁차지했다	-10.2333
▁변호사	-10.2335
▁맹	-10.2336
장관	-10.2336
▁보낸	-10.234
▁유엔	-10.2343
▁나카	-10.2343
海	-10.2346
과정	-10.2349
明	-10.2352
▁전쟁이	-10.2355
▁수원	-10.2355
▁더블	-10.2357
시키기	-10.2358
뇌	-10.2365
▁사는	-10.2365
▁출장	-10.2365
our	-10.2365
▁창립	-10.2369
넬	-10.2373
▁그것을	-10.2374
▁미니	-10.238
▁영향	-10.2381
▁회전	-10.2382
하죠	-10.2384
경기에	-10.2385
맹	-10.2387
▁됐	-10.2387
놓	-10.239
했다는	-10.2391
오는	-10.2393
使	-10.2393
▁400	-10.2394
▁기반으로	-10.2397
▁취소	-10.2402
▁느끼	-10.2407
▁수출	-10.2408
▁1964	-10.2409
▁것처럼	-10.2412
부르크	-10.2412
▁아니에요	-10.2412
▁고종	-10.2413
▁이용한	-10.2414
▁자원	-10.2414
▁조절	-10.2415
▁측면	-10.2419
▁개시	-10.242
▁제목	-10.2422
▁이란	-10.2425
▁희	-10.2425
▁완료	-10.2425
▁1962	-10.2429
답	-10.2429
▁필요하다	-10.243
▁빠른	-10.2431
대부	-10.2431
▁보아	-10.2434
▁주민들	-10.2434
욱	-10.2434
됩니다	-10.2438
트의	-10.2439
▁검은색	-10.2443
▁주기	-10.2445
중앙	-10.2446
▁가져	-10.2446
▁말해	-10.2448
▁공유	-10.2451
줘	-10.2451
▁마드리드	-10.2452
대표	-10.2452
(15	-10.2453
▁이유는	-10.2454
▁결승	-10.2457
▁공산당	-10.2458
받은	-10.246
▁한국어	-10.2462
지기	-10.2463
▁건립	-10.2463
ud	-10.2465
웠	-10.2466
었어요	-10.2472
활	-10.2477
au	-10.2482
드를	-10.2485
▁색상	-10.2486
받고	-10.2491
▁전까지	-10.2494
▁교사	-10.2498
▁견해	-10.2499
아이	-10.2502
호는	-10.2503
▁사망했다	-10.2512
▁잘라	-10.2513
▁무리	-10.2517
▁저희는	-10.2517
▁들고	-10.2519
에게는	-10.2522
▁입장	-10.2523
▁공식적으로	-10.2525
▁처음에는	-10.2526
왕의	-10.2531
▁부활	-10.2533
▁장악	-10.2534
▁지낸	-10.2536
▁경우는	-10.2542
.”	-10.2544
통신	-10.2546
렐	-10.2548
(1	-10.2549
▁과일	-10.255
▁주고	-10.2551
▁히로	-10.2551
▁위해서는	-10.2551
톨	-10.2557
중학교	-10.2558
軍	-10.2558
▁꼬리	-10.256
▁척	-10.2567
▁그렇	-10.2572
▁me	-10.2574
▁노르웨이	-10.2576
▁개봉한	-10.2576
▁베이징	-10.2578
▁태풍	-10.2579
▁1949	-10.2584
겼	-10.2589
▁카카오페이	-10.2592
으면서	-10.2593
▁바비큐	-10.2594
▁챔피언	-10.2595
이닝	-10.2596
▁공기	-10.2599
▁시작한	-10.26
▁1967	-10.2606
院	-10.2608
▁롯데	-10.261
▁산하	-10.2618
▁비록	-10.2618
트가	-10.262
었으나	-10.262
▁고등	-10.2623
▁룸	-10.2627
▁의무	-10.2627
어는	-10.2629
클리	-10.2636
항공	-10.2637
▁요한	-10.2638
▁입고	-10.2638
per	-10.2641
▁실수	-10.2641
▁길이는	-10.2641
▁맞아	-10.2642
son	-10.2644
▁논의	-10.2647
▁셀	-10.2648
▁신화	-10.2649
▁정부가	-10.2651
ity	-10.2654
▁나가는	-10.2654
▁가져다	-10.2656
(16	-10.2657
▁가르	-10.2657
▁유사	-10.2665
▁자리에	-10.2665
▁역대	-10.267
였으나	-10.267
▁바람	-10.2672
는데요	-10.2676
▁공포	-10.2678
까지는	-10.2678
▁방법을	-10.2679
▁투어	-10.2686
▁가면	-10.2691
▁여덟	-10.2693
▁계획을	-10.2695
▁논리	-10.2695
▁수가	-10.27
▁승진	-10.2702
토리	-10.2706
퍼센트	-10.2707
▁영양	-10.2707
▁시즌에	-10.2708
▁활동하였다	-10.2711
▁받게	-10.2713
▁지금까지	-10.2713
▁신분	-10.2714
▁혼란	-10.272
▁쓰고	-10.2721
▁운용	-10.2722
▁가스	-10.2727
▁답	-10.2728
▁그것	-10.2728
리우스	-10.2737
승을	-10.2739
픽	-10.274
▁해당하는	-10.2742
국민	-10.2742
지면서	-10.2749
▁제대로	-10.275
▁하는데요	-10.2751
%	-10.2755
▁결과를	-10.2756
陽	-10.2758
▁쓰인다	-10.2758
▁가야	-10.276
형을	-10.2761
▁계급	-10.2763
▁군인	-10.2765
▁다수	-10.2768
▁정확한	-10.2771
▁그거	-10.2771
▁트레	-10.2776
▁케이	-10.2776
▁발생한	-10.2777
▁직전	-10.2778
▁이야기를	-10.2782
▁조합	-10.2787
OS	-10.2789
▁상당히	-10.2793
上	-10.2797
▁미디어	-10.2799
▁취득	-10.28
▁기구	-10.2801
어야	-10.2804
▁헨리	-10.2807
상으로	-10.2807
▁탑	-10.2808
군요	-10.2811
수의	-10.2813
▁기록하였다	-10.2814
▁속한다	-10.2816
▁서양	-10.2817
오스	-10.2817
▁정복	-10.2819
둔	-10.2819
▁등장하는	-10.2821
▁얼마쯤	-10.2822
이었으며	-10.2825
이지	-10.2826
제의	-10.2828
▁업	-10.2832
▁규칙	-10.2834
촉	-10.2834
휴	-10.2836
▁붙여	-10.2839
역을	-10.2839
▁목록	-10.2839
▁영입	-10.2841
▁스트	-10.2841
하다고	-10.2841
(2	-10.2845
▁거대한	-10.2845
모리	-10.2846
▁일주일	-10.2848
▁박물관	-10.2851
▁사건이	-10.2852
▁이것을	-10.2855
▁하나는	-10.2856
필드	-10.2856
▁갖	-10.2859
▁공원	-10.286
▁세우	-10.2863
▁멜	-10.2865
오카	-10.2867
▁청년	-10.2868
▁가리킨다	-10.2868
▁합격	-10.2872
▁넌	-10.2878
혁명	-10.2879
생활	-10.2885
▁경기에	-10.2886
▁이슬람	-10.2889
▁인원	-10.2895
▁협상	-10.2898
잎	-10.2899
▁보는	-10.2899
인과	-10.2902
▁둘째	-10.2907
구나	-10.2909
디스	-10.291
▁공산주의	-10.2911
▁비슷	-10.2913
原	-10.2914
▁불법	-10.2915
▁전라북도	-10.2916
▁대표팀	-10.2919
43	-10.2923
▁한다는	-10.2923
▁워싱턴	-10.2924
▁지원을	-10.2925
원이요	-10.2925
▁와이파이	-10.2931
▁금융	-10.2935
▁흉	-10.2936
▁스코틀랜드	-10.2941
▁하였고	-10.2944
▁LG	-10.2946
▁단일	-10.2948
롬	-10.295
▁소고기	-10.295
▁구축	-10.2951
으니	-10.2955
▁도달	-10.2956
▁정도의	-10.2957
치가	-10.2962
▁걸리	-10.2966
▁보장	-10.2966
▁방향으로	-10.2969
▁그리스도	-10.297
▁모아	-10.2971
러스	-10.2974
▁전쟁을	-10.2975
▁제주	-10.2977
▁법원	-10.2978
▁사망하였다	-10.2981
겠죠	-10.2981
▁고유	-10.2981
▁채용	-10.2983
구가	-10.2983
▁직업	-10.2989
▁화면	-10.2993
▁SBS	-10.2995
▁일종이다	-10.2995
▁죽었다	-10.2997
했어	-10.2999
▁이승만	-10.3
▁갈등	-10.3001
▁합성	-10.3002
권의	-10.301
▁1965	-10.3015
쳤	-10.3015
▁틀	-10.3017
▁벨기에	-10.3019
▁탈출	-10.3022
▁반찬	-10.3023
▁두었다	-10.3029
▁한정	-10.3029
▁썼다	-10.303
드릴까요	-10.3031
하에	-10.3032
ᆞ	-10.3035
브라	-10.3036
▁종류는	-10.3037
▁상하이	-10.3038
▁보조	-10.3038
▁페르	-10.304
▁싸우	-10.3041
▁논쟁	-10.3048
▁곳으로	-10.3049
▁등급	-10.3053
닥	-10.3053
구에	-10.3057
꽃	-10.3058
▁했으며	-10.3059
론을	-10.3059
우는	-10.3061
71	-10.3062
▁나타내	-10.3064
구역	-10.3067
▁만주	-10.3067
51	-10.3068
)’	-10.3068
▁느	-10.3069
버그	-10.3069
pe	-10.3071
▁레코드	-10.3072
▁신인	-10.3076
▁병력	-10.3076
마루	-10.3078
▁유나이티드	-10.3079
부인	-10.3079
AP	-10.308
럴	-10.3081
▁모여	-10.3085
▁입니다	-10.3086
받아	-10.3086
▁기다리	-10.309
▁특별한	-10.3093
▁도중	-10.3096
▁단독	-10.3099
▁며칠	-10.31
▁뜻을	-10.3102
▁진짜	-10.3105
럽	-10.3105
de	-10.3107
▁왔	-10.3112
괄	-10.312
西	-10.3121
▁반발	-10.3124
▁팀을	-10.3133
▁짜	-10.3137
당했다	-10.3139
▁it	-10.3139
▁사라	-10.314
av	-10.3147
▁좋	-10.3151
▁연재	-10.3157
바라	-10.3157
▁해산	-10.3158
▁1961	-10.3162
인으로	-10.3165
▁무료	-10.3172
▁불과	-10.3172
보고	-10.3176
▁중화민국	-10.3176
▁중세	-10.3178
단이	-10.3178
▁블루	-10.3181
太	-10.3181
▁도와	-10.3183
상태	-10.3185
혔다	-10.3186
▁De	-10.3188
▁지어	-10.3189
▁합쳐	-10.3193
▁반드시	-10.3194
셜	-10.3198
ers	-10.3203
42	-10.3203
▁이탈리아의	-10.3207
▁청나라	-10.3213
쉽	-10.3219
▁베를린	-10.3219
▁바꿔	-10.3219
▁수사	-10.3222
▁감사합니다	-10.3222
光	-10.3226
▁출마	-10.3227
▁드리겠습니다	-10.3227
▁마시	-10.3233
하시나요	-10.3237
部	-10.3238
▁33	-10.324
▁유행	-10.324
티아	-10.324
▁창조	-10.3243
▁마치	-10.3244
▁종류의	-10.3245
▁힘들	-10.3245
▁자녀	-10.3246
ang	-10.3248
▁꼭	-10.3249
▁금속	-10.3258
41	-10.326
크로	-10.3261
활동	-10.3264
▁본사	-10.3266
▁배경	-10.3267
▁신설	-10.3269
▁낭	-10.327
▁1966	-10.3273
▁선의	-10.3273
▁하시	-10.3276
▁덴	-10.3278
▁연관	-10.3279
식이	-10.3279
코스	-10.3283
선수	-10.3284
▁물건	-10.3284
▁유전	-10.3286
▁망명	-10.3286
ess	-10.3291
리지	-10.3294
본부	-10.3294
▁타임	-10.3296
▁자살	-10.3298
▁발표하였다	-10.33
▁사용되고	-10.3301
▁이르는	-10.3302
뜨	-10.3304
▁역임했다	-10.3306
▁종류가	-10.3306
▁않았고	-10.3323
▁Me	-10.3323
▁철수	-10.3324
심을	-10.3325
▁주전	-10.3326
괴	-10.3327
학을	-10.3329
地	-10.3333
▁곤	-10.3339
▁지켜	-10.3339
▁원하는	-10.3345
▁심장	-10.3346
주실	-10.3347
▁조치	-10.3349
▁확실	-10.3354
▁참고	-10.3358
식은	-10.3359
▁그러한	-10.3363
▁상륙	-10.3363
▁36	-10.3364
▁세종	-10.3368
▁코치	-10.3374
家	-10.3381
쾌	-10.3385
▁후에는	-10.3388
ian	-10.3388
▁주관	-10.339
▁번째로	-10.3393
리의	-10.3397
▁뽑	-10.3398
▁카페	-10.34
▁소비에트	-10.3402
분을	-10.3403
▁직원	-10.3404
▁이천	-10.3405
▁백작	-10.3405
▁잠깐	-10.3411
잉	-10.3413
▁이룬다	-10.3413
ti	-10.3416
▁아메리카	-10.3417
▁말았다	-10.3418
▁가치	-10.3418
▁명명	-10.3418
룰	-10.342
팽	-10.3422
▁떨어지	-10.3422
▁보여주	-10.3424
▁극장	-10.3427
테스	-10.343
▁시작하여	-10.343
▁우리는	-10.3431
▁함대	-10.3432
▁=	-10.3433
종이	-10.3436
▁구속	-10.3445
겔	-10.3446
▁진주	-10.3447
뿐만	-10.3449
▁스테	-10.3452
▁작곡가	-10.3452
▁종이	-10.3452
렸고	-10.3457
세와	-10.3457
▁했는데	-10.3457
정치	-10.3457
박쥐	-10.347
_5	-10.3474
go	-10.3474
▁유전자	-10.3475
조직	-10.3476
▁동원	-10.3478
웅	-10.3479
▁대화	-10.3479
법에	-10.348
▁반영	-10.3481
▁참전	-10.3482
▁목소리	-10.3485
▁갈라	-10.3486
▁그들이	-10.3486
곱	-10.3494
本	-10.3494
▁뮤직	-10.3498
▁대공	-10.3501
▁진입	-10.3502
▁방법으로	-10.3505
▁촉	-10.3509
▁사건을	-10.3513
▁복합	-10.3514
▁v	-10.3516
ip	-10.3516
▁플랫폼	-10.3516
▁소년	-10.3518
▁항공기	-10.3525
▁창단	-10.3527
▁벌어	-10.3533
▁에피소드	-10.3534
사람	-10.3534
▁인류	-10.3535
▁처형	-10.3537
▁롤	-10.3539
▁않게	-10.3539
▁부임	-10.3539
▁치킨	-10.3544
▁짐	-10.3546
▁이하	-10.3548
왕후	-10.3549
▁응용	-10.3551
▁시작으로	-10.3551
▁놓고	-10.3556
AT	-10.356
▁Ch	-10.356
up	-10.3566
▁가시	-10.3566
100	-10.3569
▁발라	-10.3569
▁집에서	-10.3571
▁오리	-10.3572
토스	-10.3575
▁러	-10.3576
▁쪽에	-10.3577
▁김정	-10.3579
~1	-10.358
철도	-10.3582
▁CD	-10.3587
억원	-10.3587
개로	-10.3588
▁분자	-10.3592
다리	-10.3592
▁나왔다	-10.3594
상은	-10.3597
世	-10.3599
▁천체	-10.36
▁선수가	-10.3605
▁마지막으로	-10.3605
▁안쪽	-10.3607
기원전	-10.3608
德	-10.3609
▁이뤄	-10.3609
이었으나	-10.361
▁일곱	-10.361
北	-10.3616
▁역사적	-10.3618
ci	-10.3618
▁별명	-10.3624
▁입자	-10.3627
▁현장	-10.3629
▁고속	-10.363
▁개체	-10.3631
▁보유	-10.3632
▁빠르게	-10.3632
武	-10.3636
▁시켜	-10.3637
▁개최된	-10.3639
▁성경	-10.3644
▁했던	-10.3645
게임	-10.3645
시죠	-10.3647
▁공개된	-10.3647
▁제어	-10.3649
▁공통	-10.3654
식으로	-10.3656
▁의료	-10.3657
▁얼음	-10.366
▁1941	-10.366
팩	-10.3662
프는	-10.3663
▁최초	-10.3667
ong	-10.3668
없는	-10.3669
▁파악	-10.3673
▁1944	-10.3674
都	-10.3676
구조	-10.3683
▁뜻한다	-10.369
고속도로	-10.3691
▁편입	-10.3694
▁마이	-10.3694
▁동작	-10.3694
▁관직	-10.3696
제품	-10.3699
▁지상역이다	-10.3701
ng	-10.3707
IS	-10.3708
▁앞으로	-10.3711
行	-10.3712
▁화물	-10.3717
▁덮	-10.3717
▁각각의	-10.3721
▁둘러	-10.3721
田	-10.3721
▁러시아의	-10.3721
▁아들로	-10.3721
캐	-10.3722
▁논란이	-10.3723
▁k	-10.3724
▁싸움	-10.3725
▁말기	-10.3727
▁준다	-10.3728
▁여객철도	-10.3732
日	-10.3735
럭	-10.3736
▁수상했다	-10.3738
▁에도	-10.3741
▁그죠	-10.3745
브리	-10.375
면에	-10.375
▁있으세요	-10.3751
▁엘리	-10.3752
▁열렸다	-10.3754
세트	-10.3755
▁경제적	-10.3755
▁막부	-10.3761
▁싫어	-10.3762
▁브루	-10.3764
▁얼마죠	-10.3764
▁샷	-10.3767
▁흰색	-10.3769
▁보안	-10.3769
▁애들	-10.3769
▁인상	-10.377
▁선조	-10.3773
▁않으면	-10.3775
▁이만	-10.3778
▁타이틀	-10.378
▁다음은	-10.3782
피스	-10.3782
▁수리	-10.3783
▁섞	-10.3783
▁순간	-10.3787
소리	-10.3788
▁불렀다	-10.379
▁당신이	-10.379
당의	-10.379
드러	-10.3791
▁가사	-10.3792
▁야마	-10.3792
▁끌어	-10.3794
▁라떼	-10.3795
축구	-10.3796
▁손상	-10.3797
▁효율	-10.3798
▁하세요	-10.3798
▁앉아	-10.3801
주시나요	-10.3801
-20	-10.3802
▁작품을	-10.3803
마르	-10.3808
▁기록한	-10.381
획	-10.3811
문제	-10.3812
ack	-10.3816
▁발언	-10.3818
▁노동자	-10.3818
▁SK	-10.3819
빠	-10.3825
석을	-10.3825
▁상승	-10.3826
▁교류	-10.3829
▁신체	-10.3831
신을	-10.3833
▁발견된	-10.3833
꺼	-10.3836
겠어요	-10.3837
▁굽	-10.3839
▁주둔	-10.3839
▁후원	-10.3841
깃	-10.3843
▁드리	-10.3844
神	-10.3852
▁점을	-10.3854
▁엑스	-10.3855
드의	-10.3855
▁오스만	-10.3855
▁Co	-10.3856
▁본부	-10.386
▁앞에서	-10.3861
▁사태	-10.3861
▁힐	-10.3862
연맹	-10.3862
되었	-10.3862
▁플레이오프	-10.3863
▁잇는	-10.3869
▁액	-10.387
시나요	-10.3871
노동	-10.3874
았고	-10.3879
▁몽	-10.3882
▁150	-10.3883
듯	-10.3889
▁보컬	-10.3891
AR	-10.3893
▁오토	-10.3895
▁재건	-10.39
▁유대인	-10.39
▁수송	-10.3902
이라서	-10.3902
스파	-10.3904
▁빼앗	-10.3905
▁체크인	-10.3907
짓	-10.3909
▁법칙	-10.3911
▁예산	-10.3914
공업	-10.3917
▁무덤	-10.3918
▁Q	-10.3919
▁끈	-10.3919
▁출신으로	-10.392
상이	-10.3922
▁삼천	-10.3924
▁뛰	-10.3928
▁챔피언스리그	-10.393
▁일치	-10.3936
▁움직이	-10.3937
▁진압	-10.3938
되는데	-10.3939
▁배출	-10.394
▁하려고	-10.3943
단계	-10.3944
▁고용	-10.3944
▁군대를	-10.3946
君	-10.3948
▁존재하는	-10.3951
▁이중	-10.3956
▁대학교에서	-10.3958
▁아우	-10.396
▁코스	-10.3962
▁마침내	-10.3964
하므로	-10.3965
권은	-10.3966
▁생존	-10.3973
▁라이브	-10.3979
▁많아	-10.3979
▁진보	-10.3979
▁소녀	-10.398
▁계기로	-10.398
▁완공	-10.3982
▁받았고	-10.3982
▁깊은	-10.3984
▁동의	-10.3985
▁없을	-10.3985
▁좌우	-10.3986
▁가리키는	-10.3997
랙	-10.3998
왔	-10.3998
▁시럽	-10.3999
▁누가	-10.4004
▁이민	-10.4004
중에	-10.4008
▁듣고	-10.4013
▁감사	-10.4015
▁코트	-10.4016
든지	-10.4018
타카	-10.4019
▁변환	-10.402
▁느낌	-10.4024
소가	-10.4025
▁화이트	-10.4026
▁신성	-10.4027
윈	-10.4029
스트리	-10.4029
▁후손	-10.4029
▁본인	-10.4029
능력	-10.403
램	-10.4031
if	-10.4031
▁한반도	-10.4037
▁울산	-10.4038
▁기본적으로	-10.4038
▁끝나	-10.4041
▁변경되었다	-10.4043
▁예측	-10.4044
차전	-10.4044
▁갈색	-10.4044
▁관료	-10.4045
▁전화번호	-10.4046
▁외국인	-10.4051
첼	-10.4054
▁대개	-10.4055
600	-10.4055
▁아버지는	-10.4055
장과	-10.4058
▁탈락	-10.4058
▁양쪽	-10.4059
▁역을	-10.4059
기구	-10.4059
▁곳은	-10.4061
겠습니다	-10.4066
▁지금의	-10.4072
▁봤	-10.4072
시티	-10.408
▁수여	-10.408
▁민간	-10.4081
우드	-10.4085
▁정수	-10.4086
▁타격	-10.4089
▁포지션은	-10.4089
▁목표로	-10.4091
▁연구소	-10.4094
▁바뀌	-10.4096
▁레드	-10.4098
▁맞이	-10.4099
노스	-10.41
대장	-10.4101
▁최다	-10.4102
52	-10.4103
힐	-10.4107
▁1919	-10.4113
천군	-10.4118
국제	-10.412
▁1947	-10.412
▁우려	-10.412
▁운동을	-10.4123
▁점점	-10.4126
▁피해를	-10.4128
▁38	-10.4133
▁중학교	-10.4139
▁팬들	-10.414
▁유니	-10.4142
▁어떠한	-10.4145
▁멀리	-10.4146
▁지급	-10.4146
단은	-10.4149
▁시내	-10.415
▁카메라	-10.4153
학회	-10.4156
郡	-10.4157
會	-10.4157
▁도시로	-10.4158
▁바닥	-10.4161
대사	-10.4162
▁것이며	-10.4164
▁박스	-10.4168
자에게	-10.4168
▁여부	-10.4168
▁크라	-10.417
▁전선	-10.4171
드리겠습니다	-10.4172
▁알려졌다	-10.4173
내는	-10.4173
ss	-10.4174
▁콘서트	-10.4176
門	-10.4178
▁작품으로	-10.4182
아파트	-10.4182
ion	-10.4183
▁마감	-10.4184
▁이전의	-10.4187
▁가졌다	-10.4187
셔도	-10.4188
▁출간	-10.4191
ide	-10.4193
▁초반	-10.4194
컴	-10.4198
났다	-10.4199
▁안내	-10.4208
▁움직임	-10.4209
하였던	-10.4212
▁가로	-10.4212
▁사전	-10.4213
▁압력	-10.4213
▁오랫동안	-10.4214
▁예정이다	-10.4215
▁첨	-10.4217
군으로	-10.4219
▁객실	-10.4221
했었다	-10.4221
▁차원	-10.4223
ak	-10.4226
▁없었	-10.423
단으로	-10.423
웨	-10.4231
▁전파	-10.4234
▁물리	-10.4236
원에	-10.4237
▁의학	-10.4242
▁시청	-10.4242
▁병사	-10.4244
▁불상	-10.4245
▁사면	-10.4245
▁분쟁	-10.4245
▁앞두고	-10.4247
▁임금	-10.4248
성으로	-10.4249
▁엔터테인먼트	-10.4249
호가	-10.425
랭	-10.4251
▁알아보	-10.4253
체가	-10.4257
▁되자	-10.426
▁1958	-10.4264
▁돌려	-10.4265
유럽	-10.4266
인들의	-10.4268
司	-10.4268
NA	-10.4269
▁서버	-10.4272
▁시인	-10.4276
▁않으며	-10.4276
낼	-10.4281
▁태국	-10.4281
시가	-10.4284
▁1939	-10.4287
ass	-10.4289
▁귤	-10.4291
▁쥐	-10.4291
▁경기는	-10.4298
▁열대	-10.4298
▁만한	-10.4312
▁형태를	-10.4313
▁검은	-10.4316
투스	-10.4321
공원	-10.4321
▁능력을	-10.4326
▁세계대전	-10.4328
하려면	-10.4331
▁맡기	-10.4331
▁1956	-10.4331
EC	-10.4335
▁드려요	-10.4336
▁달라요	-10.4337
▁주어	-10.4339
연구소	-10.4342
분류	-10.4346
▁찾고	-10.4346
▁트랙	-10.435
▁정확히	-10.4351
▁부동산	-10.4352
▁밑에	-10.4355
ast	-10.4357
▁검찰	-10.4363
▁관광	-10.4363
▁착용	-10.4364
신문	-10.4366
新	-10.4368
▁혈	-10.437
자들을	-10.4371
듯이	-10.4375
▁이들의	-10.4378
▁34	-10.438
▁타이완	-10.4382
▁있었기	-10.4385
▁사령관	-10.4388
▁웨	-10.4396
▁아빠	-10.4397
장군	-10.44
▁상황에서	-10.4401
량의	-10.4401
▁밝히	-10.4403
▁안돼요	-10.4405
▁있어야	-10.4407
▁다수의	-10.4407
▁보기	-10.4407
▁오면	-10.441
크는	-10.441
▁성능	-10.4411
▁메모리	-10.4417
▁포함하고	-10.4419
시험	-10.442
▁나왔	-10.4423
▁왕위	-10.4425
▁뜻은	-10.4426
족의	-10.4428
官	-10.4429
▁빠지	-10.4431
지와	-10.4431
政	-10.4431
뼈	-10.4431
▁국가의	-10.4433
900	-10.4434
▁붉은	-10.4436
▁문헌	-10.4436
▁변형	-10.4437
▁메인	-10.4438
▁추측	-10.4444
▁조선시대	-10.4448
▁내놓	-10.4453
me	-10.4453
bo	-10.4455
▁청주	-10.4457
▁연안	-10.4457
▁위반	-10.4458
▁인도네시아	-10.446
〉,	-10.4462
▁분할	-10.4464
▁세르비아	-10.4465
▁중부	-10.4467
▁부담	-10.4471
▁띄	-10.4472
▁그래요	-10.4474
개가	-10.4475
▁일찍	-10.4476
PS	-10.4478
▁개조	-10.448
▁모임	-10.4482
국이	-10.4483
페이	-10.4484
▁안에서	-10.4484
▁조지아	-10.4485
▁부위	-10.4486
▁수집	-10.4487
▁희망	-10.4488
▁포장해	-10.4489
▁정비	-10.449
▁흘러	-10.4491
▁추가로	-10.4494
▁살인	-10.4494
씨는	-10.4497
탱	-10.4498
▁잇	-10.4502
▁마크	-10.4502
▁하였으나	-10.4504
구는	-10.4505
▁머물	-10.4505
▁충청북도	-10.4506
당은	-10.4507
어가	-10.4507
▁향해	-10.4509
▁다르게	-10.451
▁감염	-10.4513
▁흑인	-10.4513
▁만들고	-10.4516
▁삼성페이	-10.4516
▁신뢰	-10.4518
▁현지	-10.4522
▁오른	-10.4527
▁발매된	-10.4531
end	-10.4532
▁등판	-10.4536
▁마이클	-10.4538
병원	-10.4539
▁나타난다	-10.4545
라며	-10.4546
▁이쪽	-10.4546
▁시리아	-10.4547
▁센	-10.455
▁대부분은	-10.4551
에선	-10.4556
縣	-10.4557
▁의존	-10.456
▁장교	-10.4562
▁당초	-10.4564
▁무게	-10.4565
▁위상	-10.4565
▁당시에는	-10.4568
▁졸업하고	-10.4569
▁부하	-10.457
▁천연	-10.457
▁없다는	-10.4571
행정	-10.4571
▁조작	-10.4572
▁유적	-10.4575
수록	-10.4575
▁흰	-10.4576
티스	-10.4577
되어야	-10.4578
▁겐	-10.4579
age	-10.4583
經	-10.4586
▁자금	-10.4587
맛	-10.4587
▁작사	-10.4587
드려	-10.4588
無	-10.4589
▁코너	-10.4589
▁독일군	-10.4593
▁문제로	-10.4596
▁쳐	-10.4597
▁말하는	-10.4605
▁기지	-10.4606
▁분위기	-10.4607
▁나누어	-10.461
仁	-10.4611
▁주말	-10.4612
▁결승전	-10.4614
▁부르는	-10.4618
▁철도역이다	-10.4618
▁물체	-10.4619
권에	-10.462
▁자식	-10.4624
▁의심	-10.4625
主	-10.4626
▁프로그램이다	-10.4626
▁개신교	-10.4626
쿨	-10.4626
ff	-10.4627
분의	-10.4628
▁폭력	-10.4628
동물	-10.4631
MS	-10.4631
도시	-10.4632
성군	-10.4632
▁글을	-10.4638
▁뼈	-10.4638
水	-10.4638
300	-10.4639
▁브라	-10.464
▁제외	-10.4643
▁좋지	-10.4643
학생	-10.4645
(17	-10.4645
▁전면	-10.465
▁훈	-10.4651
진을	-10.4652
×	-10.4653
▁위기	-10.4653
크림	-10.4658
▁끌	-10.466
▁후지	-10.4661
▁단백질	-10.4663
▁부분이	-10.4663
해진	-10.4663
▁포함한다	-10.4663
▁갖는	-10.467
▁포로	-10.4673
▁나타내는	-10.4675
▁기술을	-10.4679
ca	-10.4681
조는	-10.4684
트와	-10.4685
▁필요하신	-10.4687
▁상위	-10.4689
▁기록이	-10.4689
▁농민	-10.469
▁그녀	-10.4691
▁찾	-10.4691
▁주실래요	-10.4692
▁내용은	-10.4694
▁함락	-10.4697
판을	-10.4698
낙	-10.4699
▁새벽	-10.4706
제국	-10.4706
▁로버트	-10.4708
주로	-10.4709
▁어려운	-10.471
▁1954	-10.471
▁충격	-10.471
▁화성	-10.4711
▁의도	-10.4716
▁항구	-10.4716
▁고통	-10.4719
▁He	-10.472
인실	-10.4723
공간	-10.4724
프린	-10.4728
▁나이로	-10.4729
▁연출	-10.4729
ord	-10.4729
▁명칭	-10.4731
▁훗날	-10.4732
렀	-10.4733
▁니시	-10.4734
쇄	-10.4734
▁간행	-10.474
▁서명	-10.4742
었지만	-10.4743
▁인터	-10.4744
▁경력	-10.4745
조의	-10.4747
▁전철	-10.4749
▁부진	-10.4751
AC	-10.4752
▁차별	-10.4756
▁FA	-10.4757
천원	-10.4759
▁논란	-10.476
ace	-10.4762
▁도구	-10.4768
▁코미디	-10.4768
▁활동했다	-10.4772
▁범주	-10.4776
계획	-10.478
▁노벨	-10.4781
▁정책을	-10.4782
▁허가	-10.4783
▁손자	-10.4785
▁반대로	-10.4786
▁핀	-10.4789
▁인권	-10.4805
물로	-10.4808
▁가요	-10.4814
▁가까이	-10.4815
▁없으며	-10.4815
▁딱	-10.4817
▁튀	-10.4818
ni	-10.4819
끼리	-10.4821
나이	-10.4821
-19	-10.4821
▁평가를	-10.4823
드가	-10.4824
▁선생	-10.4824
▁1942	-10.4824
▁대량	-10.4825
▁위원	-10.4829
지며	-10.4831
▁린	-10.4832
▁펼쳐	-10.4832
▁사장	-10.4833
만원이에요	-10.4837
믹	-10.484
븐	-10.4847
였지만	-10.4852
패를	-10.4852
사에서	-10.4854
▁국방	-10.4856
▁유형문화재	-10.4862
▁대한민국에서는	-10.4867
▁보러	-10.4869
▁서비스를	-10.487
▁번주	-10.4873
com	-10.4875
▁무시	-10.4876
▁브레	-10.4877
▁순수	-10.4878
부장	-10.4879
▁입어	-10.4882
▁1952	-10.4884
▁조조	-10.4887
이었지만	-10.489
▁스토리	-10.489
▁출범	-10.4893
▁존재하지	-10.4894
▁is	-10.4895
▁명단	-10.4895
▁중에는	-10.4896
▁문장	-10.4896
▁공업	-10.4896
▁아라	-10.4897
▁선거에서	-10.4897
파의	-10.4899
시스	-10.4902
▁방이	-10.4903
’(	-10.4905
▁부산광역시	-10.4905
▁테이크아웃	-10.4908
▁없죠	-10.491
▁핫	-10.4911
▁큐	-10.4915
▁마무리	-10.4918
사랑	-10.4919
▁녹색	-10.4919
▁돈을	-10.4921
▁뜻하는	-10.4922
▁관계가	-10.4924
▁1955	-10.4928
▁사실이	-10.4929
▁통상	-10.4932
▁감독이	-10.4933
▁통계	-10.4936
체는	-10.4941
▁1959	-10.4944
▁선수단	-10.4947
▁해당한다	-10.4948
▁커트	-10.4952
ction	-10.4954
▁받는다	-10.4955
▁선전	-10.4959
▁작품이다	-10.4961
국은	-10.4962
▁사항	-10.4963
▁나아가	-10.4965
가능	-10.4968
다면	-10.4968
▁탐	-10.4969
▁쪽으로	-10.4971
▁높다	-10.4974
▁발음	-10.4974
▁공을	-10.4975
▁근데	-10.4975
▁듀	-10.4977
生	-10.4979
▁걱정	-10.4981
▁등장한다	-10.4984
▁국산	-10.4984
▁인쇄	-10.4985
쌍	-10.4991
▁되며	-10.4993
리나	-10.4994
▁시조	-10.4998
ver	-10.5001
▁오페라	-10.5002
ep	-10.5002
▁자신들의	-10.5003
▁정지	-10.5004
싸	-10.5008
▁팝	-10.5008
▁사법	-10.501
▁구현	-10.5016
스트로	-10.5019
▁카라	-10.502
각형	-10.5022
거죠	-10.5024
▁작품은	-10.5026
▁받아들여	-10.5027
▁국도	-10.503
▁선정되었다	-10.5031
▁사형	-10.5032
▁크다	-10.5033
▁도서관	-10.5034
▁내용이	-10.5037
드립니다	-10.5037
셨어요	-10.5037
▁1943	-10.5037
하겠습니다	-10.5038
데이	-10.504
계에	-10.5043
▁말에	-10.5044
틱	-10.5049
눈	-10.505
▁연료	-10.5052
▁유사한	-10.5052
느냐	-10.5054
▁대통령이	-10.5059
▁의장	-10.506
▁수단	-10.5062
▁불고기	-10.5062
겁	-10.5064
▁기울	-10.5067
▁밝은	-10.5068
께서	-10.5068
단지	-10.5069
▁의미를	-10.5071
▁벡터	-10.5073
안을	-10.5075
▁프로그램을	-10.5079
사관	-10.5081
▁전신	-10.5087
▁되기	-10.5089
▁전통적인	-10.5091
▁여러가지	-10.5091
ame	-10.5091
려고요	-10.5096
던데	-10.5097
▁가진다	-10.5099
▁금방	-10.5099
발전	-10.51
▁양념	-10.5101
▁후보로	-10.5103
▁재배	-10.5111
▁이르러	-10.5113
▁감독으로	-10.5113
▁일본인	-10.5115
▁각본	-10.5115
▁시작한다	-10.5116
▁대리	-10.5116
▁사립	-10.5117
▁왕자	-10.5118
흘	-10.5118
▁기둥	-10.5119
▁방해	-10.512
▁학술	-10.5121
▁학위를	-10.5124
랐다	-10.5129
▁기회	-10.513
▁면적	-10.5131
년경	-10.5131
▁먹이	-10.5134
▁테러	-10.5135
▁기회를	-10.5138
▁주장하였다	-10.5142
▁이루어졌다	-10.5143
그라	-10.5145
di	-10.5147
▁예비	-10.5147
▁특별히	-10.5153
▁하죠	-10.5153
▁인생	-10.5156
대신	-10.5164
▁장르	-10.5164
▁호수	-10.5166
▁다음을	-10.5169
▁가담	-10.5169
▁경성	-10.5171
а	-10.5172
했어요	-10.5177
▁주목	-10.5179
씨의	-10.5182
▁명칭은	-10.5183
밭	-10.5185
▁보시면	-10.5186
▁닫	-10.5188
▁실현	-10.5192
ru	-10.5195
낸다	-10.5197
▁주시면	-10.52
▁인디언	-10.5202
▁사임	-10.5206
▁국제공항	-10.5207
킷	-10.5208
되지만	-10.521
ue	-10.5211
하러	-10.5211
▁작업을	-10.5213
▁킹	-10.5216
▁색상은	-10.5217
▁페르시아	-10.5219
▁데리고	-10.522
▁로켓	-10.522
▁상태에서	-10.5225
▁침입	-10.5225
▁화산	-10.5226
법은	-10.5231
보이	-10.5232
St	-10.5233
세로	-10.5235
▁인종	-10.5239
▁상담	-10.5242
▁중이다	-10.5242
▁달려	-10.5245
▁데뷔하였다	-10.5249
▁독립운동	-10.525
▁하나만	-10.5252
▁학습	-10.5255
▁것이라는	-10.5255
▁세대	-10.5258
▁맞는	-10.5261
얀	-10.5262
▁법정	-10.5263
요시	-10.5264
보세요	-10.5264
▁말이다	-10.5268
▁지불	-10.5271
▁장수	-10.5273
▁갑자기	-10.5276
뱅	-10.5277
▁맵	-10.5279
▁포함하여	-10.5279
▁저쪽	-10.528
▁까	-10.5284
▁모드	-10.5286
시와	-10.5288
▁마이크로소프트	-10.5289
▁인공	-10.5291
▁바뀌었다	-10.5293
▁김밥	-10.5293
▁아침에	-10.5297
▁질문	-10.5299
▁계통	-10.53
▁카르	-10.53
▁모양의	-10.5306
▁크레	-10.5308
이었	-10.5309
켄	-10.531
▁편찬	-10.5311
▁1953	-10.5313
▁제공한다	-10.532
▁벗어나	-10.5323
겹	-10.5326
▁폴리	-10.5326
▁침략	-10.5327
▁상태로	-10.5327
▁목사	-10.533
ER	-10.5334
▁내렸다	-10.5337
▁보증금	-10.5339
▁그럼요	-10.534
▁저술	-10.5342
▁삼만	-10.5343
~19	-10.5344
▁유일하게	-10.5345
▁확률	-10.535
▁아홉	-10.5356
▁길을	-10.5357
줘요	-10.536
▁만들기	-10.5362
▁만들어졌다	-10.5364
메르	-10.5364
▁일어났다	-10.5364
자로서	-10.5365
▁이끌	-10.5366
▁크로스	-10.5367
▁실력	-10.5367
▁분열	-10.5371
기록	-10.5372
▁찾는	-10.5372
▁활동하고	-10.538
▁아테네	-10.5382
▁연습	-10.5382
▁의지	-10.5384
▁대장	-10.5384
▁먹으면	-10.5385
부터는	-10.5386
▁넓이는	-10.5386
▁이내	-10.5387
▁역으로	-10.5388
▁대표하는	-10.5389
▁올림픽에서	-10.5389
▁이루고	-10.539
▁서식	-10.539
▁뜨	-10.5391
▁정차	-10.5392
▁각지	-10.5392
▁발발	-10.5394
▁보여주세요	-10.5394
▁운영하고	-10.5395
▁마쓰	-10.5395
▁그래픽	-10.5396
▁필요가	-10.54
▁나폴레옹	-10.5403
▁올렸다	-10.5404
▁공헌	-10.5405
▁왕국의	-10.5413
hi	-10.5413
TA	-10.5416
▁나뉜다	-10.5419
번째로	-10.5419
▁비트	-10.5422
▁날짜	-10.5423
▁정원	-10.5425
▁기체	-10.5426
▁요거	-10.5428
▁캘리포니아	-10.5428
비트	-10.5429
▁발견되었다	-10.5431
▁연구를	-10.5433
ock	-10.5435
콤	-10.5438
▁대부분이	-10.5441
사상	-10.5442
hy	-10.5444
▁동안에	-10.5445
▁밀려	-10.5446
▁히트	-10.5446
▁보물	-10.5447
▁원형	-10.545
▁있음을	-10.5451
▁사양	-10.5451
▁침대	-10.5452
▁먼	-10.5454
▁복무	-10.5458
▁한자	-10.5459
▁해리	-10.5459
AN	-10.546
▁e	-10.546
▁천문학	-10.5461
▁그걸	-10.5464
▁화장실은	-10.5465
르트	-10.5467
▁성당	-10.5469
환경	-10.5472
▁출시되었다	-10.5474
▁3000	-10.5477
▁박정희	-10.5478
▁프로이센	-10.5478
▁포르	-10.5479
▁시작된	-10.5481
▁소송	-10.5481
▁보이지	-10.5482
폼	-10.5483
▁가슴	-10.5483
▁이혼	-10.5485
▁비싸	-10.5486
▁다양	-10.5488
▁작동	-10.5489
받았	-10.549
위원장	-10.5492
문화재	-10.5492
▁지역으로	-10.5493
령을	-10.5494
ens	-10.5496
▁가치가	-10.5503
▁추구	-10.5503
▁사람들을	-10.5504
▁방송국	-10.5505
상과	-10.5505
▁거듭	-10.5506
AS	-10.5512
▁정치인	-10.5516
▁터미널	-10.5521
▁묶	-10.5524
지요	-10.5528
興	-10.5537
떼	-10.5539
▁구원	-10.554
대상	-10.5542
▁발굴	-10.5543
편성	-10.5543
둘	-10.5545
▁주연	-10.5548
▁지위	-10.5549
▁독자	-10.5552
IP	-10.5553
▁복원	-10.5557
忠	-10.5558
베르크	-10.5558
▁엄청난	-10.5559
ton	-10.5561
▁나온다	-10.5562
▁신상	-10.5564
CA	-10.5564
▁레오	-10.5566
▁의혹	-10.5567
▁지은	-10.5567
▁돌아와	-10.5571
▁광복	-10.5574
▁쓰이는	-10.5577
▁부분은	-10.5578
맞	-10.5578
▁크로	-10.5579
▁얻은	-10.5583
▁활약을	-10.5583
사키	-10.5585
▁처벌	-10.5589
▁도전	-10.5596
▁1957	-10.5597
듬	-10.5598
▁날개	-10.5599
▁눈에	-10.5602
법이	-10.5604
▁전원	-10.5607
키아	-10.561
▁크고	-10.5613
갔	-10.5614
으로서의	-10.5614
▁높이는	-10.5615
▁타입	-10.5617
▁조카	-10.562
▁하나인	-10.562
▁부분을	-10.5622
▁거두었다	-10.5622
산군	-10.5623
선으로	-10.5625
▁개설	-10.5626
▁새롭게	-10.563
▁확립	-10.563
▁승객	-10.5631
▁임진왜란	-10.5631
▁지방의	-10.5632
하다는	-10.5633
▁부상을	-10.5633
▁그렇지	-10.5635
▁회색	-10.5635
▁사냥	-10.5638
▁그녀가	-10.5643
대교	-10.5643
龍	-10.5648
▁악화	-10.5649
▁나누	-10.5651
▁지붕	-10.5655
▁독특한	-10.5656
기지	-10.5656
점으로	-10.5657
▁웃	-10.5658
▁집행	-10.566
▁기호	-10.566
▁골드	-10.5663
▁자극	-10.5666
▁세상	-10.5671
자유	-10.5672
▁해에	-10.5672
▁1910	-10.5673
▁당신은	-10.5674
▁설득	-10.5675
▁호주	-10.5675
▁위로	-10.5677
▁사천	-10.5679
▁개발한	-10.5679
▁브라운	-10.5681
▁개별	-10.5685
▁톰	-10.5685
▁가끔	-10.5688
조합	-10.5691
▁방지	-10.5692
▁절반	-10.5695
▁통산	-10.57
▁애플	-10.5702
함과	-10.5704
▁혐의로	-10.5704
므로	-10.5704
▁못하였다	-10.5704
▁목록이다	-10.5705
▁여왕	-10.571
▁질병	-10.5716
▁비싼	-10.5718
주에	-10.5719
▁집권	-10.572
▁방정식	-10.5721
▁방영된	-10.5722
조차	-10.5734
지구	-10.5734
▁프로듀서	-10.5735
▁에스	-10.5736
▁집을	-10.5737
▁황금	-10.5737
렛	-10.5738
▁상처	-10.5739
▁언제까지	-10.574
ob	-10.5741
▁상당한	-10.5743
▁사람들의	-10.5743
▁않지만	-10.5744
점은	-10.5744
릭스	-10.5745
▁게다가	-10.5746
▁홍보	-10.5747
▁하나님	-10.5747
▁생각하고	-10.575
▁갖다	-10.5751
▁효과가	-10.5753
▁원작	-10.5753
▁축제	-10.5753
▁성향	-10.5754
▁가지는	-10.5755
▁머리가	-10.5758
▁태도	-10.5761
▁행복	-10.5762
동으로	-10.5762
▁징역	-10.5763
▁주최	-10.5764
▁유기	-10.5765
▁별도로	-10.5765
▁1500	-10.5765
▁늘어	-10.5766
박물관	-10.5767
▁분야에서	-10.5773
▁복수	-10.5773
▁흔	-10.5775
▁인기가	-10.5775
▁조금만	-10.5776
석이	-10.5781
▁얻을	-10.5781
시를	-10.5782
▁드라이	-10.5786
▁명함	-10.5786
▁현역	-10.5786
까지의	-10.579
잠	-10.5793
▁돌아오	-10.5795
▁소화	-10.5796
▁유형	-10.5798
천원이에요	-10.58
껍	-10.5801
뮤	-10.5802
▁개입	-10.5805
▁마법	-10.5806
체제	-10.5806
▁굳	-10.5807
깊	-10.5809
▁보병	-10.5809
▁도모	-10.581
역학	-10.581
▁왔는데	-10.5813
▁들면	-10.5813
▁주연으로	-10.5814
▁600	-10.582
▁메시지	-10.582
▁받았	-10.5823
ood	-10.5824
▁유물	-10.5824
→	-10.5826
보살	-10.5832
_6	-10.5835
400	-10.5835
주가	-10.5839
▁제작한	-10.5839
마이	-10.584
▁골을	-10.5842
▁r	-10.5842
▁1936	-10.5844
▁펠	-10.5845
해져	-10.5848
▁들어갔다	-10.5849
▁장남	-10.585
▁같아	-10.5854
IN	-10.5856
▁그와	-10.5856
▁자라	-10.5857
▁교육을	-10.5858
▁원리	-10.5859
▁서구	-10.586
번의	-10.5861
▁병합	-10.5868
敎	-10.5868
相	-10.5869
▁혼합	-10.5869
앤	-10.5869
▁연산	-10.5872
▁개칭	-10.5872
▁참조	-10.5876
▁분이	-10.5878
▁금메달을	-10.5882
800	-10.5882
▁셰	-10.5884
▁사마	-10.5887
▁왕실	-10.589
▁준우승	-10.589
▁만든다	-10.5894
▁아카데미	-10.5895
▁듯	-10.5895
▁잉	-10.5897
IT	-10.5899
▁55	-10.5899
▁다루	-10.59
앵	-10.5904
▁이쪽에	-10.5906
▁하였으며	-10.5907
▁감독을	-10.5911
▁입장을	-10.5916
▁펌	-10.5917
코프	-10.5919
▁심각한	-10.5919
▁No	-10.592
▁아카	-10.5921
▁카이	-10.5928
▁우린	-10.5931
▁편이다	-10.5932
▁설치된	-10.5933
꾼	-10.5934
▁성적을	-10.5935
▁저는	-10.5936
▁선호	-10.5937
▁상대적으로	-10.5942
▁출력	-10.5948
덩	-10.5949
▁글자	-10.5949
▁영웅	-10.595
▁소비	-10.5953
▁고도	-10.5954
만명	-10.5956
▁확산	-10.5958
▁스피	-10.5961
▁스킨	-10.5966
▁규모의	-10.5967
▁방법이	-10.5967
の	-10.5969
감이	-10.5971
▁정기	-10.5972
▁다다	-10.5973
포르	-10.5974
▁것이라	-10.5974
으려고	-10.5977
▁st	-10.5977
▁맞춰	-10.5981
oc	-10.5984
▁잃	-10.5985
▁신고	-10.5985
▁히틀러	-10.5986
漢	-10.5986
▁on	-10.5986
▁협정	-10.5988
▁빚	-10.5988
▁음악을	-10.5988
▁화재	-10.5988
▁맡은	-10.5988
념	-10.5989
▁모형	-10.5989
▁일부는	-10.5989
▁원래는	-10.5991
▁엠	-10.5991
▁어디서	-10.5993
낭	-10.5994
▁1938	-10.5995
▁위원장	-10.5995
▁일원	-10.5996
▁받았으며	-10.5997
da	-10.5997
▁WWE	-10.5997
SA	-10.6
▁춤	-10.6002
▁이라크	-10.6003
ib	-10.6003
주실래요	-10.6003
▁하위	-10.6005
▁김일성	-10.6006
▁바이에른	-10.6008
▁시절에	-10.6008
▁싶	-10.6009
▁평일	-10.601
▁권위	-10.6011
대학원	-10.6011
▁사용된	-10.6012
▁이름의	-10.6013
所	-10.6014
▁겁니다	-10.6014
봐요	-10.6015
▁1914	-10.6015
▁못하는	-10.6019
▁한글	-10.6022
▁가리	-10.6022
입니까	-10.6028
▁로드	-10.6032
하셔야	-10.6035
▁흐름	-10.6035
▁자는	-10.6035
공신	-10.6037
▁찰스	-10.6037
계에서	-10.6037
▁37	-10.6037
지방법원	-10.6038
▁다소	-10.6039
ty	-10.604
▁뮤지컬	-10.6045
▁변화를	-10.6049
▁쓰여	-10.6051
▁충분히	-10.6052
▁가상	-10.6052
란다	-10.6054
▁아래에	-10.6056
▁Ma	-10.6061
으로도	-10.6061
▁매운	-10.6064
▁서울대학교	-10.6066
▁공동체	-10.6066
▁생각해	-10.6067
려는	-10.6069
▁영지	-10.607
▁다음날	-10.6071
▁않기	-10.6071
▁데이비드	-10.6073
▁시카고	-10.6074
▁참여했다	-10.6078
▁미국과	-10.6079
뿔	-10.6082
五	-10.6082
▁동서	-10.6084
▁윈	-10.6087
▁재학	-10.6092
▁1937	-10.6097
▁연간	-10.6098
▁이른다	-10.61
버렸다	-10.61
니는	-10.6102
▁한계	-10.6102
▁베스트	-10.6107
▁중력	-10.6108
▁식빵	-10.6109
▁여론	-10.6113
▁기다려	-10.6114
계약	-10.6115
▁설립되었다	-10.6116
▁번호는	-10.6118
-4	-10.6119
▁발탁	-10.612
▁Mo	-10.6121
▁부부	-10.6121
▁남녀	-10.6123
어와	-10.6126
▁상관	-10.6128
▁탈퇴	-10.6129
코드	-10.6133
▁감시	-10.6135
MA	-10.6137
▁충전	-10.6138
▁컬러	-10.6143
▁갔	-10.6143
▁혼인	-10.6147
sp	-10.6152
민주당	-10.6152
▁라틴어	-10.6152
주었다	-10.6153
콩	-10.6158
어스	-10.6162
▁영화는	-10.6164
▁열어	-10.6165
이치	-10.617
하이	-10.617
▁알렉	-10.617
▁여객	-10.617
▁트라	-10.617
셰	-10.6171
▁이르렀다	-10.6174
▁지위를	-10.6174
▁명나라	-10.6178
▁스탠	-10.618
ind	-10.6183
▁총선	-10.6185
당시	-10.6188
▁따르	-10.6188
뒤	-10.6191
있나요	-10.6191
▁주력	-10.6199
▁아름다운	-10.6202
▁중인	-10.6203
▁태조	-10.6203
형으로	-10.6205
▁단편	-10.6205
▁아웃	-10.6207
▁비행기	-10.6211
▁곡을	-10.6214
史	-10.6217
▁내전	-10.6217
▁보았다	-10.6218
▁드시면	-10.6219
▁갖추고	-10.6221
ae	-10.6223
▁뉴질랜드	-10.6225
크스	-10.6226
▁앨	-10.6229
▁하실	-10.6231
聖	-10.6237
▁냉	-10.6238
넨	-10.624
▁샤를	-10.6246
▁맞추	-10.625
▁대선	-10.625
▁do	-10.6252
so	-10.6254
▁공연을	-10.6255
▁로스앤젤레스	-10.6257
▁세상을	-10.6259
▁빙	-10.626
▁없어서	-10.6261
▁가문의	-10.6264
▁그곳	-10.627
쿼	-10.6271
▁가져가	-10.6273
▁접한다	-10.6275
▁떠났다	-10.6275
당을	-10.6277
▁조식	-10.6277
▁그렇다면	-10.6278
▁1918	-10.6281
▁일본어	-10.6283
판이	-10.6286
▁무사	-10.6288
▁심지어	-10.629
▁안되	-10.6291
▁원에	-10.6293
▁기도	-10.6293
▁민중	-10.6295
▁이로써	-10.6295
sion	-10.6296
드와	-10.6298
▁탁	-10.6298
▁점이	-10.6299
진흥	-10.6299
▁화가	-10.6301
▁수소	-10.6301
▁오직	-10.6302
▁세력을	-10.6304
SP	-10.6304
교통	-10.6305
tra	-10.6305
스에서	-10.6307
▁친구들	-10.6308
쿄	-10.6309
▁르	-10.6312
▁몰라	-10.6312
으려	-10.6315
▁이상이	-10.6318
▁보유하고	-10.6318
▁Pro	-10.6322
▁아시안	-10.6326
▁출입	-10.6327
▁만들었	-10.633
▁사정	-10.633
▁Al	-10.6333
▁로스	-10.6333
보를	-10.6338
효소	-10.634
▁어른	-10.6341
▁배포	-10.6341
▁챔피언십	-10.6342
▁1935	-10.6343
▁맞서	-10.6344
▁비롯하여	-10.6344
▁DNA	-10.6347
▁불렸다	-10.6349
스에	-10.635
탐	-10.635
보호	-10.6352
한데	-10.6354
▁걸어	-10.6355
▁허락	-10.6358
▁수도원	-10.6362
▁폐쇄	-10.6363
ath	-10.6363
달러	-10.6364
주와	-10.6367
▁찾으세요	-10.6368
▁방법은	-10.6369
주의자	-10.6372
▁대회에	-10.6372
▁준비해	-10.6375
건가요	-10.6375
▁일어나는	-10.638
▁기병	-10.6385
▁나타낸다	-10.6385
▁남겼다	-10.6387
▁종사	-10.6387
딕	-10.6388
▁해양	-10.6389
서울	-10.6389
▁건축물	-10.6394
볼게요	-10.6395
mo	-10.6397
▁시간대	-10.6401
민주	-10.6404
▁대체로	-10.6405
감독	-10.6406
아나	-10.6411
▁그것이	-10.6411
▁고리	-10.6412
소설	-10.6413
▁역이다	-10.6415
할게요	-10.6416
되던	-10.6417
▁의견	-10.6426
▁청구	-10.6427
라서	-10.6427
교수	-10.6429
법인	-10.6431
댄	-10.6432
▁텍사스	-10.6432
▁소멸	-10.6435
▁사용했다	-10.6435
sc	-10.6438
Ch	-10.6438
닉스	-10.6442
aw	-10.6443
▁소속으로	-10.6443
▁자체가	-10.6444
ies	-10.6449
林	-10.645
tic	-10.6452
학원	-10.6452
▁하던	-10.6455
▁꼬	-10.6455
하였	-10.6457
▁특정한	-10.6459
▁생겨	-10.6459
▁당나라	-10.6461
▁떡볶이	-10.6462
▁자리에서	-10.6463
슐	-10.6465
다이	-10.6465
▁관심	-10.6466
▁인구가	-10.6473
▁사망한	-10.6474
▁들었	-10.6477
▁임무	-10.6477
ice	-10.6479
SC	-10.648
iv	-10.6481
여명	-10.6483
▁아기	-10.6483
표를	-10.6484
▁수익	-10.6485
펀	-10.6486
▁유통	-10.6486
▁하시는	-10.6487
慶	-10.6488
▁불만	-10.6489
▁결론	-10.6495
▁윌	-10.6497
▁비타민	-10.6497
버린	-10.6499
뷰	-10.65
▁경향	-10.6501
봐도	-10.6502
▁올랐	-10.6503
▁나타나는	-10.6504
▁선임	-10.6505
▁주위	-10.6505
▁이전에는	-10.6505
▁연결하는	-10.6507
포스	-10.6508
▁업체	-10.6508
▁임의의	-10.6511
등의	-10.6513
▁낫	-10.6513
▁주인	-10.6514
理	-10.6518
품을	-10.6521
▁곡은	-10.6526
▁크로아티아	-10.6536
랍	-10.6536
▁42	-10.6537
▁즉시	-10.6539
▁잊	-10.6539
▁강점기	-10.6542
▁일부를	-10.6542
▁전쟁에서	-10.6543
▁아동	-10.6543
▁re	-10.6544
▁역에서	-10.6545
자동차	-10.6546
▁않습니다	-10.6548
▁포트	-10.6552
民	-10.6554
▁리더	-10.6555
▁남쪽으로	-10.6555
▁분노	-10.6555
▁새끼	-10.6558
▁조선총독부	-10.656
▁사용하였다	-10.656
▁교재	-10.6562
▁국정	-10.6562
▁어울리	-10.6563
▁하루에	-10.6564
씨가	-10.6567
▁스페인의	-10.6567
아시아	-10.6567
▁절차	-10.6569
▁진행되었다	-10.6569
▁공중	-10.6574
▁올림픽에	-10.6575
▁유일	-10.6575
▁벌어진	-10.6575
곽	-10.6582
▁배달은	-10.659
▁that	-10.659
▁항의	-10.6592
▁김치	-10.6595
적으로는	-10.6595
▁세계적으로	-10.6597
▁요인	-10.66
▁불가	-10.6602
▁자본	-10.6603
▁노래를	-10.6604
팬	-10.6606
았으며	-10.6608
▁왕비	-10.6611
▁줄어들	-10.6611
▁웨스트	-10.6614
TC	-10.6618
▁노출	-10.6624
▁메뉴판	-10.6624
▁롱	-10.6627
지대	-10.6627
▁접촉	-10.6627
▁파티	-10.6628
▁호소	-10.6629
〉(	-10.6634
▁식당	-10.6634
▁서식지	-10.6634
▁전송	-10.6637
회에	-10.6638
▁근본	-10.6638
▁있는지	-10.664
▁입구	-10.6642
헨	-10.6646
▁유효	-10.6648
▁세이	-10.6651
▁내의	-10.6652
馬	-10.6653
▁만다	-10.6653
학의	-10.6655
江	-10.6656
▁없으세요	-10.6657
식물	-10.6661
킥	-10.6662
▁한국인	-10.6662
▁아랍	-10.6663
밤	-10.6664
▁효과를	-10.6666
▁위치를	-10.6669
▁가져오	-10.667
▁홈런	-10.6673
모를	-10.6674
또는	-10.6674
▁실내	-10.668
관은	-10.6681
▁제공하는	-10.6685
형의	-10.6685
▁일상	-10.6686
하여야	-10.6686
▁참가했다	-10.6688
▁달아	-10.6688
▁평소	-10.6689
에만	-10.6689
▁US	-10.6691
렴	-10.6693
▁광장	-10.6696
▁시의	-10.6698
ec	-10.6698
TO	-10.6703
▁대한민국에서	-10.6704
ft	-10.6704
▁그리하여	-10.6705
▁크리	-10.6706
▁점수	-10.6707
▁일으킨	-10.6707
ga	-10.6709
▁승려	-10.6712
노르	-10.6717
▁구천	-10.672
▁만난	-10.672
▁기다려주세요	-10.672
▁인조	-10.6722
▁추기경	-10.6722
▁과거에	-10.6724
▁이기	-10.6727
▁대법원	-10.6728
▁행동을	-10.6728
ect	-10.6728
▁나올	-10.6729
▁피자	-10.6731
朴	-10.6735
▁안타	-10.6735
IA	-10.6735
끄	-10.6736
역에서	-10.6739
2000	-10.6741
▁수상하였다	-10.6744
▁체크아웃	-10.6744
▁상속	-10.6745
▁1932	-10.675
▁행렬	-10.675
▁이들을	-10.6751
▁제휴	-10.6755
조를	-10.6756
▁혜	-10.6759
▁책임을	-10.6762
記	-10.6765
▁어려움	-10.6765
和	-10.6765
해드릴게요	-10.6766
부와	-10.6768
▁하우스	-10.6769
▁저녁에	-10.6771
▁상대식	-10.6774
ON	-10.6774
▁동양	-10.6777
▁사퇴	-10.6778
▁사제	-10.678
▁그만	-10.6782
왕이	-10.6783
о	-10.6783
▁하느님	-10.6783
에서부터	-10.6785
白	-10.6786
▁서울시	-10.6788
▁문을	-10.6788
▁재개	-10.6789
상에	-10.679
▁옛날	-10.679
넌	-10.6791
란드	-10.6791
저우	-10.6792
▁임기	-10.6792
▁테이블	-10.6796
▁아버지가	-10.6796
▁기소	-10.6797
▁가설	-10.6797
됨	-10.6803
▁사업을	-10.6805
▁할아버지	-10.6805
▁여겨진다	-10.6806
중국	-10.6807
▁리처드	-10.6808
우치	-10.6813
▁놈	-10.6813
▁지니고	-10.6815
▁퀸	-10.6815
▁파크	-10.682
▁깊이	-10.6822
▁1951	-10.6823
▁이후에도	-10.6829
퍼드	-10.6833
▁돈가스	-10.6833
선과	-10.6834
▁학살	-10.6835
되거나	-10.6836
번호	-10.6836
지마	-10.6837
공학	-10.6839
▁매주	-10.684
야구	-10.684
▁나들목	-10.6841
웠다	-10.6844
▁1900	-10.6851
▁1933	-10.6854
▁아이돌	-10.6856
▁프리드리히	-10.6857
체로	-10.6858
▁오늘은	-10.6858
▁남겨	-10.6863
▁미드필더	-10.6863
푼	-10.6863
▁천주교	-10.6864
▁에드워드	-10.6866
▁뜻이	-10.6866
▁전망	-10.6867
▁있었다고	-10.6869
▁그래도	-10.6869
▁인용	-10.687
▁루이스	-10.6871
▁킬	-10.6872
하지는	-10.6872
되게	-10.6873
▁메이지	-10.6874
▁클리닉	-10.6875
▁말레이시아	-10.6875
동맹	-10.6877
0000	-10.6877
▁떨어졌	-10.6878
▁자네	-10.6879
▁예로	-10.688
▁국가들	-10.688
▁피해자	-10.6881
皇	-10.6884
▁석유	-10.6886
▁폭탄	-10.6886
활동을	-10.6887
ke	-10.6887
져서	-10.6887
▁타율	-10.6887
놈	-10.6894
▁로봇	-10.6894
▁레벨	-10.6894
▁보여준다	-10.6894
▁강등	-10.6895
▁기법	-10.6896
▁미국인	-10.6898
▁운동화	-10.6898
▁소형	-10.6901
▁영향력	-10.6904
▁그곳에서	-10.6908
▁상황이	-10.6909
▁공정	-10.691
▁동방	-10.691
*	-10.6912
心	-10.6919
너스	-10.6925
▁켄	-10.6928
륨	-10.6931
토모	-10.6934
▁나도	-10.6936
▁왕이	-10.6937
▁비상	-10.6938
du	-10.6944
▁아들인	-10.6953
▁어머니는	-10.6954
륙	-10.6954
▁공무원	-10.6954
ake	-10.6956
열차	-10.6956
▁단순	-10.6957
그램	-10.6959
▁39	-10.696
▁빵은	-10.6963
▁받아들이	-10.6965
▁스키	-10.6968
全	-10.6974
▁포항	-10.6975
▁저거	-10.6978
▁투쟁	-10.6979
▁대상이	-10.6979
iz	-10.6983
▁붙어	-10.6983
▁완전한	-10.6983
II	-10.6984
▁없게	-10.6986
만으로	-10.6986
▁니콜라	-10.699
▁아직도	-10.6991
MP	-10.6991
등급	-10.6991
▁드래프트	-10.6996
법원	-10.6997
▁래	-10.6997
▁불가리아	-10.6998
▁유배	-10.7003
▁고급	-10.7004
SL	-10.7006
▁원인이	-10.7007
▁가르치	-10.7011
▁나뉘	-10.7011
▁1924	-10.7013
(14	-10.7015
▁보고서	-10.7016
물질	-10.7018
永	-10.7018
▁세인트	-10.7019
▁+	-10.702
끈	-10.702
▁도움이	-10.7021
▁좋다	-10.7025
▁소련의	-10.7025
▁포도	-10.7026
▁격파	-10.7028
▁몬	-10.7029
▁뜻으로	-10.7035
▁파르	-10.7037
들로부터	-10.7041
석은	-10.7042
La	-10.7042
▁다케	-10.7044
주의적	-10.7045
▁물리학	-10.7045
▁스티븐	-10.7046
이세요	-10.7049
▁태권도	-10.7049
▁곳이다	-10.705
▁원년	-10.7052
산화	-10.7054
슴	-10.7055
▁개국	-10.7056
거는	-10.7056
▁루마니아	-10.7059
▁지형	-10.7062
▁대학원	-10.7066
전문	-10.7069
▁땅을	-10.707
붕	-10.707
되었다고	-10.7072
엉	-10.7074
張	-10.7074
▁원룸	-10.7075
▁농구	-10.7075
우라	-10.7078
▁진격	-10.708
▁명령을	-10.7081
▁속한	-10.7082
오리	-10.7083
▁코르	-10.7084
▁그려	-10.7085
韓	-10.7086
▁Do	-10.7089
定	-10.709
▁1934	-10.7091
▁특징이다	-10.7091
▁주장한다	-10.7093
▁숭	-10.7093
▁분명	-10.7097
▁선출되었다	-10.7099
善	-10.71
知	-10.71
방식	-10.71
▁기록은	-10.71
▁일본에	-10.7101
ai	-10.7105
커스	-10.7107
▁오시면	-10.711
▁든	-10.711
ron	-10.7118
장치	-10.712
▁걸려	-10.7122
▁없는데	-10.7124
▁진학	-10.7125
▁이틀	-10.7126
▁이루어	-10.7128
▁본다	-10.7132
▁손을	-10.7133
주시겠어요	-10.7133
▁참가한	-10.7134
뇨	-10.7135
▁좋아하는	-10.7136
▁잡고	-10.7136
–	-10.7139
▁일정한	-10.7143
▁체험	-10.7143
▁이른바	-10.7147
eg	-10.7149
▁곽	-10.7152
▁후임	-10.7152
꾸	-10.7153
첸	-10.7153
▁관여	-10.7155
▁단순한	-10.7155
▁웅	-10.7156
아리	-10.7157
겸	-10.7158
▁클레	-10.7159
AM	-10.7161
냥	-10.7163
론의	-10.7163
산물	-10.7164
▁일은	-10.7164
▁아들이	-10.7169
들에서	-10.7169
▁수영	-10.717
▁번의	-10.7174
법의	-10.7176
▁지지를	-10.7176
▁말라	-10.7177
▁골든	-10.7177
▁그들	-10.7178
▁세부	-10.7179
▁줄기	-10.7181
어져	-10.7185
▁나뉘어	-10.7188
MC	-10.7189
前	-10.7194
qu	-10.7195
▁Ro	-10.7196
▁열차가	-10.7202
▁소식을	-10.7203
주의를	-10.7205
▁일으켰다	-10.7206
라인	-10.7207
턱	-10.721
▁비롯	-10.7215
▁영국에서	-10.7217
▁동해	-10.7217
▁짜장면	-10.722
등이	-10.7221
▁복잡한	-10.7221
▁Sh	-10.7221
순위	-10.7223
▁문제는	-10.7225
▁부친	-10.7227
▁안동	-10.7228
▁역사를	-10.7228
▁곱	-10.7228
▁연결되어	-10.7229
▁차지하고	-10.7232
ou	-10.7233
에서만	-10.7235
슬리	-10.7242
▁세금	-10.7243
▁그들을	-10.7245
▁맛이	-10.7247
▁추방	-10.7247
▁Th	-10.7248
▁상주	-10.7248
有	-10.7249
▁문화재	-10.725
▁달린	-10.7252
▁내셔널	-10.7255
자들에게	-10.7255
그래	-10.7256
▁꺼	-10.7261
▁고객	-10.7264
▁시스템을	-10.7266
▁다음에	-10.7268
▁유치	-10.7268
▁뭐에요	-10.7272
▁비용이	-10.7273
스트라	-10.7276
▁그거는	-10.7276
넥	-10.7277
낳	-10.7277
che	-10.7278
▁사운드	-10.7278
겠다고	-10.7279
▁베네치아	-10.7281
out	-10.7281
▁유럽의	-10.7284
▁뛰고	-10.729
붙	-10.7293
▁나타났다	-10.7294
▁마음에	-10.7298
▁개방	-10.7298
▁발생하는	-10.7299
방향	-10.7301
▁상황을	-10.7302
▁오만	-10.7307
▁봐요	-10.7309
▁따서	-10.731
▁1928	-10.7311
짜	-10.7311
▁학자들	-10.7315
▁재능	-10.7315
쿠스	-10.7317
▁김성	-10.7322
베르트	-10.7323
▁책을	-10.7328
▁서술	-10.7333
론은	-10.7336
▁헤어	-10.7337
퀘	-10.7342
▁경로	-10.7346
▁웨이	-10.7347
▁업적	-10.735
있습니다	-10.7357
▁역은	-10.736
▁대지	-10.7361
▁베이스	-10.7362
▁딴	-10.7363
슨은	-10.7364
▁그럴	-10.7367
帝	-10.7368
性	-10.7368
▁허리	-10.7373
ree	-10.7373
▁성공을	-10.7373
머스	-10.7375
▁각국	-10.7378
▁아프	-10.7378
▁구멍	-10.7378
▁옮기	-10.7381
▁이끌었다	-10.7384
▁쿠데타	-10.7384
oy	-10.7384
▁바이러스	-10.7385
▁모습이	-10.7386
▁홋카이도	-10.7387
▁오렌지	-10.7387
▁차단	-10.7391
▁민법	-10.7393
▁제작에	-10.7394
▁군단	-10.7394
▁개량	-10.7402
사령부	-10.7403
등을	-10.7404
▁기록되어	-10.7405
체육	-10.7406
▁일으켜	-10.7407
▁갖는다	-10.7408
▁잭슨	-10.7408
회는	-10.7412
▁저렴한	-10.7414
▁선박	-10.7416
▁뮌헨	-10.742
타임	-10.742
경찰	-10.742
브레	-10.7423
里	-10.7429
▁체육	-10.743
▁영양제	-10.743
▁오는	-10.7433
찾	-10.7435
▁상실	-10.7437
졸	-10.7439
▁서쪽으로	-10.744
내고	-10.7441
비스	-10.7443
▁개명	-10.7445
▁해드릴게요	-10.7446
▁매직	-10.7448
▁유한	-10.7449
▁역임하였다	-10.745
▁개성	-10.7452
▁전쟁에	-10.7453
▁연구에	-10.7454
▁빌보드	-10.7456
더스	-10.7456
str	-10.7459
▁후계자	-10.7461
▁아래와	-10.7461
▁탄소	-10.7461
▁기름	-10.7464
▁하여금	-10.7465
▁소문	-10.7465
되었기	-10.7466
▁발간	-10.7469
do	-10.7469
▁밝	-10.7473
▁사건으로	-10.7473
▁권한	-10.7474
▁말은	-10.7478
네이	-10.7479
▁여긴	-10.7479
하였다고	-10.748
▁초에	-10.748
궐	-10.7481
▁무한	-10.7484
▁무릎	-10.7485
▁알고리즘	-10.7485
▁창당	-10.7487
한다면	-10.7489
▁이루는	-10.7491
▁융	-10.7492
▁창작	-10.7493
▁라이트	-10.7498
▁썼	-10.7499
▁패션	-10.7503
▁고속도로	-10.7506
▁방은	-10.7508
▁가톨릭교회	-10.7509
▁재임	-10.7512
▁뒤로	-10.7513
▁습격	-10.7514
▁확	-10.7515
▁인지	-10.7517
▁관련이	-10.7519
▁문제에	-10.752
▁교구	-10.7521
▁국무	-10.7522
▁바탕	-10.7524
1%	-10.7524
▁벼슬	-10.7524
▁군의	-10.7525
▁양산	-10.7528
물의	-10.7528
▁많아요	-10.7528
하니	-10.753
sa	-10.753
였는데	-10.7532
연구원	-10.7534
old	-10.7535
▁형식으로	-10.7536
▁분해	-10.754
▁못한다	-10.754
▁대표로	-10.7541
웰	-10.7542
▁와이	-10.7542
res	-10.7544
▁120	-10.7546
_7	-10.7548
▁형사	-10.755
堂	-10.7554
▁간단한	-10.7554
之	-10.7556
과학기술	-10.7557
▁국민의	-10.7558
랐	-10.7558
▁보상	-10.756
부문	-10.7561
그리	-10.7561
▁후속	-10.7563
▁영국군	-10.7564
▁권력을	-10.7565
▁없지만	-10.7565
▁선포	-10.7565
이신가요	-10.7566
▁검색	-10.757
▁입법	-10.757
▁발명	-10.7571
▁소요	-10.7573
▁AFC	-10.7574
▁상태가	-10.7575
▁자랑	-10.7577
▁엘리베이터	-10.7577
▁있으므로	-10.7579
▁서기	-10.758
구리	-10.7582
즈는	-10.7583
▁아리	-10.7584
▁받으	-10.7587
▁통화	-10.7593
대전	-10.7594
CO	-10.7597
정의	-10.7598
▁변수	-10.7599
안에	-10.7601
▁크루	-10.7601
▁흐	-10.7602
▁동쪽으로	-10.7605
▁참여한	-10.7606
昌	-10.7607
글리	-10.7607
▁복잡	-10.7608
▁메리	-10.7608
화는	-10.7609
ny	-10.761
▁증언	-10.7613
▁안녕	-10.7613
었을	-10.7615
▁앱	-10.7616
▁초기의	-10.7616
▁전체적으로	-10.7617
▁테마	-10.7617
▁가나	-10.7618
적이다	-10.7621
ct	-10.7622
羅	-10.7627
▁구성원	-10.7627
이라도	-10.7628
An	-10.7628
▁악기	-10.7632
▁1931	-10.7634
기념	-10.7634
▁Be	-10.7636
거든	-10.7637
CC	-10.7637
▁김종	-10.7638
하시고	-10.7638
리안	-10.7642
ary	-10.7645
▁초코	-10.7645
으시면	-10.7646
▁Tr	-10.765
▁신부	-10.7653
5000	-10.7656
탓	-10.7657
ach	-10.7657
</	-10.7658
▁거리에	-10.7659
▁이적하였다	-10.7663
뷔	-10.7665
▁해드릴까요	-10.7665
오르	-10.7667
▁동북	-10.7667
▁초기에	-10.767
▁못해	-10.7671
▁Con	-10.7675
Al	-10.7677
▁일부가	-10.7678
▁별도의	-10.7679
▁궁전	-10.7679
킴	-10.768
▁크기는	-10.768
▁히로시마	-10.7681
▁동명	-10.7683
맘	-10.7687
▁사람들에게	-10.7687
▁말로	-10.7689
▁학자	-10.769
극장	-10.7692
▁걸친	-10.7693
▁선거구	-10.7694
▁섬식	-10.7694
생물학	-10.7694
▁계속해서	-10.7695
▁밝혀졌다	-10.7696
숭	-10.7697
▁충분	-10.77
▁할인해	-10.77
▁입단하였다	-10.7702
▁열어요	-10.7703
카타	-10.7703
▁판사	-10.7703
佛	-10.7703
▁민주주의	-10.7706
不	-10.7708
살이	-10.7711
▁검토	-10.7712
같이	-10.7716
▁죽어	-10.7718
플라	-10.7721
ear	-10.7722
▁경제학	-10.7723
▁48	-10.7723
▁뛰어	-10.7725
▁영주	-10.7728
▁조건을	-10.7729
▁클래식	-10.773
▁그녀를	-10.7731
리얼	-10.7736
▁인증	-10.7738
十	-10.774
▁삼십	-10.7741
페르	-10.7743
셋	-10.7745
▁탄핵	-10.7749
▁사용해	-10.7749
▁향수	-10.7751
▁환불	-10.7751
▁어서	-10.7752
tion	-10.7753
▁법학	-10.7754
▁맞나요	-10.7756
묵	-10.7758
카스	-10.7759
렸으며	-10.7759
휘	-10.7759
▁수석	-10.7763
▁적극	-10.7763
小	-10.7764
▁산소	-10.7764
미술	-10.7764
▁돼지	-10.7765
▁고양이	-10.7765
▁태종	-10.7766
▁쓰러	-10.7768
▁밖으로	-10.7768
▁바라	-10.7773
가지고	-10.7778
▁케어	-10.7779
받는	-10.7782
▁언덕	-10.7783
▁기록하며	-10.7784
▁1925	-10.7784
형은	-10.7784
▁명을	-10.7785
▁비용은	-10.7785
박스	-10.7788
▁적도	-10.7796
▁프라	-10.7798
▁남아프리카	-10.7801
팡	-10.7801
▁포함된	-10.7801
층은	-10.7802
▁터널	-10.7803
▁위에서	-10.7803
으시	-10.7805
▁최후	-10.7808
ial	-10.7809
▁심리	-10.7813
파이어	-10.7816
▁문명	-10.7816
리온	-10.7821
ever	-10.7822
해지고	-10.7827
▁타자	-10.7832
▁디스크	-10.7834
▁대한제국	-10.7834
화와	-10.7838
鄭	-10.7838
▁1923	-10.7843
버트	-10.7845
▁주간	-10.7846
▁액체	-10.7846
▁대통령은	-10.7847
▁의문	-10.785
▁명칭을	-10.7853
▁탄압	-10.7855
▁조선인	-10.7856
일간	-10.7863
▁동기	-10.7867
겠지	-10.7874
3%	-10.7875
▁게임을	-10.7875
카르	-10.7876
중인	-10.7877
▁행정구역	-10.7877
플레이	-10.7879
▁모자	-10.7884
준다	-10.7886
▁폭격	-10.7887
▁수십	-10.7887
함이	-10.7888
▁최우수	-10.7889
京	-10.789
▁무료로	-10.7891
▁떠난	-10.7897
▁명단에	-10.7906
▁촌	-10.7907
▁기장	-10.7908
2%	-10.7911
▁이외에	-10.7911
크라	-10.7914
▁적어도	-10.7915
士	-10.7916
▁적혀	-10.7917
법으로	-10.7918
▁일어났	-10.7918
▁헤르	-10.7921
ance	-10.7923
▁소방	-10.7925
▁홈페이지	-10.7927
▁전술	-10.7927
700	-10.7929
▁샌드위치	-10.793
▁우수	-10.7933
▁아니야	-10.7936
▁임신	-10.7939
▁1921	-10.7939
이라면	-10.7941
▁어렵	-10.7942
▁연평균	-10.7944
▁균	-10.7944
▁물을	-10.7945
「	-10.7945
ov	-10.7947
▁상당	-10.7947
▁최근에는	-10.7948
SS	-10.7953
洞	-10.7953
▁OS	-10.7956
▁칭호	-10.7956
▁주문하면	-10.7959
▁낸	-10.796
했습니다	-10.796
▁에드	-10.7964
▁무인	-10.7964
클레	-10.7964
▁프라이	-10.7965
▁동네	-10.7966
▁본격적으로	-10.7968
▁1929	-10.7969
▁신사	-10.797
ore	-10.7971
▁We	-10.7971
▁환승	-10.7972
▁돌아온	-10.7973
됨에	-10.7975
▁단순히	-10.7976
▁이웃	-10.7978
▁부탁드려요	-10.7978
▁주장을	-10.798
▁열리는	-10.7982
▁흔적	-10.7987
▁몸을	-10.7987
히로	-10.7988
化	-10.7988
▁모바일	-10.7989
즘	-10.7994
▁암컷	-10.7999
▁마음을	-10.8001
▁경전	-10.8004
▁음성	-10.8005
▁바위	-10.8008
▁우리나라	-10.8008
▁지향	-10.8011
▁축소	-10.8013
켜	-10.8015
▁지속적으로	-10.8015
톱	-10.8015
▁IC	-10.8016
픈	-10.8017
▁삶을	-10.8017
겠어	-10.8019
▁쿠키	-10.8019
▁찬성	-10.802
▁널	-10.802
▁전투기	-10.8021
▁박스에	-10.8025
方	-10.8026
be	-10.8027
▁클로	-10.8027
▁It	-10.8029
▁팔천	-10.8029
▁혐의	-10.8029
벼	-10.803
▁싱가포르	-10.803
▁섬의	-10.803
▁임무를	-10.803
и	-10.8033
즈의	-10.8036
쿠라	-10.8037
▁800	-10.8037
▁균형	-10.8038
▁주말에	-10.8039
셸	-10.8044
▁파워	-10.8044
▁업무를	-10.8047
다니	-10.8049
않	-10.805
▁성을	-10.805
lu	-10.8053
▁급제	-10.8053
▁진실	-10.8054
쇠	-10.8054
▁대원	-10.8056
서비스	-10.8057
In	-10.806
▁귀걸이	-10.8061
▁회화	-10.8064
▁방식을	-10.8068
▁후쿠오카	-10.8072
땅	-10.8072
체계	-10.8072
▁도와드릴게요	-10.8072
▁순환	-10.8076
▁진영	-10.8076
닛	-10.8078
▁활성화	-10.8078
위안	-10.8079
▁필수	-10.8084
▁기본적인	-10.8085
▁이외에도	-10.8088
▁we	-10.8089
▁최대한	-10.8089
▁핑크	-10.8089
▁뚫	-10.8089
古	-10.8092
▁사건은	-10.8095
▁짝	-10.8095
▁이쪽으로	-10.8097
▁계곡	-10.8097
FC	-10.8097
▁피터	-10.8098
▁총독	-10.8098
rea	-10.8098
▁꼽	-10.8104
師	-10.8107
▁1922	-10.8107
마사	-10.8108
조에	-10.811
▁오다	-10.8111
▁결의	-10.8116
▁지었다	-10.8117
▁열매	-10.8118
섹	-10.8119
▁할인은	-10.8119
ah	-10.812
원짜리	-10.812
同	-10.812
▁배경으로	-10.812
▁셀프	-10.8123
인데요	-10.8125
▁규제	-10.813
▁숙종	-10.8131
▁갖게	-10.8136
첨	-10.8137
▁첫째	-10.8138
va	-10.8139
▁늘어나	-10.814
宮	-10.8141
▁가능성	-10.8151
▁고위	-10.8155
▁커다란	-10.8159
▁평생	-10.8159
▁의미하는	-10.8159
▁목성	-10.816
▁크기가	-10.8161
▁전투를	-10.8161
▁할인되는	-10.8161
▁도쿠가와	-10.8166
▁이끌어	-10.8166
島	-10.8169
▁해발	-10.817
▁대대	-10.8171
▁옷을	-10.8171
▁연설	-10.8174
▁소집	-10.8174
▁생일	-10.8174
둑	-10.8175
尹	-10.8176
▁전동차	-10.8176
▁손실	-10.8177
▁가세요	-10.818
▁벗	-10.8182
포드	-10.8185
▁250	-10.8186
▁그러므로	-10.8188
▁꽤	-10.8188
▁액션	-10.8188
▁원주민	-10.819
▁사랑을	-10.8191
▁개척	-10.8191
▁당대	-10.8192
▁철거	-10.8193
▁깔	-10.8195
▁보험	-10.8196
▁바깥	-10.8198
下	-10.8201
화학	-10.8202
▁부르기도	-10.8202
▁노부	-10.8205
함수	-10.8211
▁항공사	-10.8214
마을	-10.8217
▁들어갈	-10.8219
▁가량	-10.822
▁영화제	-10.822
mi	-10.8221
▁상인	-10.8224
하셨	-10.8225
▁정식으로	-10.8225
▁캠퍼스	-10.8231
▁보여주는	-10.8233
▁틈	-10.8236
▁지구의	-10.8242
▁꾸준히	-10.8246
▁맨체스터	-10.8246
▁혈액	-10.8248
▁개념을	-10.8251
▁An	-10.8251
▁희생	-10.8252
RO	-10.8254
브로	-10.8256
▁있습니까	-10.8258
▁사용하기	-10.8258
▁랜	-10.8259
▁본선에	-10.826
ase	-10.826
▁맞습니다	-10.826
▁주식회사	-10.8263
▁권리를	-10.8263
타로	-10.8264
▁감옥	-10.8264
8%	-10.8266
소스	-10.8266
▁공화국의	-10.8266
▁대통령의	-10.8268
AL	-10.8268
▁혁신	-10.8273
▁단선	-10.8273
▁쇠	-10.8274
四	-10.8275
▁때마다	-10.8275
Cl	-10.8275
▁특징을	-10.8276
▁이외의	-10.828
무늬	-10.828
▁기부	-10.8285
▁천안	-10.8286
▁죽음을	-10.829
▁감자	-10.8291
▁토론	-10.8294
▁좌석	-10.8294
▁경기가	-10.8294
)>	-10.8298
4%	-10.8301
일보	-10.8306
mon	-10.8306
淸	-10.8307
▁칠레	-10.8308
▁프랑스어	-10.831
▁해설	-10.831
use	-10.8313
▁출연하였다	-10.8315
웬	-10.8317
▁금요일	-10.8318
▁계시	-10.8319
▁일종의	-10.832
▁그릇	-10.8321
▁심판	-10.8321
쪽으로	-10.8326
뜨리	-10.8327
▁어렵다	-10.8331
▁메달	-10.8333
les	-10.8334
▁마주	-10.8335
▁시점	-10.8336
▁파라	-10.8343
▁부분에	-10.8346
8000	-10.8348
▁전문가	-10.8349
▁이곳에	-10.8352
작전	-10.8356
▁좋을	-10.8373
세력	-10.8373
▁운영하는	-10.8375
ey	-10.8378
ven	-10.8381
▁상황에	-10.8382
▁출연했다	-10.8383
▁감각	-10.8383
▁멀	-10.8384
▁노선을	-10.8384
松	-10.8389
▁리그에서	-10.8391
▁가시면	-10.8391
왔으며	-10.8392
▁골키퍼	-10.8392
og	-10.8393
파크	-10.8396
▁요코하마	-10.8396
ick	-10.8398
▁백인	-10.8399
▁맞죠	-10.8399
콕	-10.84
버거	-10.8401
RA	-10.8402
▁장갑	-10.8404
멘트	-10.8405
int	-10.8405
▁최대의	-10.8407
▁독재	-10.8409
▁소련군	-10.8409
▁제주도	-10.841
▁포함되었다	-10.8411
력으로	-10.8415
▁성남	-10.8416
趙	-10.8418
마저	-10.8421
▁자국	-10.8423
▁그려져	-10.8424
▁있으신가요	-10.8425
信	-10.8425
년부터는	-10.8427
포트	-10.8431
▁뜨거운	-10.8432
▁대다수	-10.8433
▁알았	-10.8434
▁전직	-10.8435
▁포함하는	-10.8439
중이다	-10.8441
▁하기도	-10.8443
▁적어	-10.8446
▁발표된	-10.8448
치기	-10.845
▁아미	-10.8453
▁1926	-10.8455
▁트레이드	-10.8455
col	-10.8458
▁가도	-10.8462
▁그랬	-10.8465
▁거기에	-10.8467
옷	-10.8471
▁북아메리카	-10.8473
해주시겠어요	-10.8473
▁빠	-10.8473
▁유산	-10.8474
land	-10.8474
時	-10.8475
▁오세요	-10.8477
▁인정받	-10.8483
화되어	-10.8483
▁Se	-10.8486
河	-10.8486
▁법적	-10.8487
▁라지	-10.8489
라이트	-10.8491
국장	-10.8491
▁태양의	-10.8491
▁위치에	-10.8494
있어	-10.8494
own	-10.8496
▁의정부	-10.8497
▁강요	-10.8497
▁엄격	-10.8501
▁홈런을	-10.8502
▁정면	-10.8502
ran	-10.8503
▁자매	-10.8506
▁운항	-10.8507
(6	-10.851
▁Mar	-10.8512
▁구름	-10.8513
▁좋겠	-10.8514
원숭이	-10.8515
▁형상	-10.8519
▁셋	-10.852
하셔도	-10.852
▁재생	-10.8521
하려는데	-10.8522
▁화석	-10.8523
▁연계	-10.8533
▁결승전에서	-10.8533
▁영구	-10.8533
▁대우	-10.8535
▁중국에서	-10.8536
▁원이고	-10.8539
▁DVD	-10.854
▁멀티	-10.8542
DS	-10.8543
자료	-10.8547
▁아버지의	-10.8547
▁상태를	-10.8549
▁정교회	-10.8551
▁레알	-10.8552
▁고려시대	-10.8553
양군	-10.8556
dy	-10.8557
▁1912	-10.8558
6%	-10.856
▁시민들	-10.8563
▁주석	-10.8565
캡	-10.8566
▁경고	-10.8566
드릴	-10.8569
▁프리미어리그	-10.857
▁재질	-10.8571
으세요	-10.8573
▁체코	-10.8576
▁에르	-10.8576
▁동시	-10.8576
7%	-10.8577
▁뚜렷	-10.8581
▁브로	-10.8582
▁도시의	-10.8584
▁여학생	-10.8586
플러스	-10.8588
▁관장	-10.8588
▁불안	-10.8589
▁다이묘	-10.8591
▁1907	-10.86
-5	-10.8601
▁좁은	-10.8603
▁he	-10.8604
▁포크	-10.8605
▁택	-10.8606
-10	-10.8607
▁부서	-10.8607
ence	-10.8611
▁놓여	-10.8612
▁계층	-10.8612
▁성공했다	-10.8616
ica	-10.8616
▁여름에	-10.8616
▁뷰	-10.8617
란트	-10.862
▁주장하는	-10.8622
▁나라의	-10.8625
줬	-10.8625
이후	-10.8626
han	-10.8626
▁히데	-10.8628
▁이번에	-10.8629
▁모르겠	-10.863
▁구글	-10.863
▁목살	-10.8631
像	-10.8635
도서관	-10.8636
▁유력	-10.8638
미국	-10.8639
▁건물은	-10.864
▁양이	-10.8641
▁직무	-10.8642
▁교회의	-10.8645
▁토론토	-10.8645
▁SS	-10.8645
▁총재	-10.8646
▁64	-10.8647
▁쏘	-10.8649
▁사이드	-10.8651
~20	-10.8655
율이	-10.8656
▁증상	-10.8657
way	-10.866
햄	-10.8661
▁새우	-10.8663
▁말이야	-10.8664
▁석방	-10.8668
▁접속	-10.8668
전선	-10.8668
▁사람으로	-10.8672
IC	-10.8674
▁남극	-10.8677
▁그리스어	-10.8679
▁프로그래밍	-10.868
혔	-10.8681
▁풀어	-10.8681
▁보이고	-10.8686
▁죄송하지만	-10.8687
개혁	-10.8687
▁HD	-10.8688
▁조선시대의	-10.8696
pi	-10.8703
뱅크	-10.8703
▁소비자	-10.8704
▁초기에는	-10.8704
the	-10.871
ba	-10.8711
IV	-10.8713
▁이어지는	-10.8713
▁끓	-10.8714
해주시면	-10.8714
▁시작했고	-10.8716
▁인물로	-10.8717
▁codice	-10.872
솜	-10.872
▁신발은	-10.872
▁이것도	-10.8722
▁영향으로	-10.8722
로프	-10.8723
▁부지	-10.8726
▁나고야	-10.8729
▁종전	-10.8729
▁제도를	-10.873
ound	-10.8735
▁불편	-10.8735
ich	-10.8737
▁발휘	-10.8739
▁김대중	-10.8739
ric	-10.8741
▁끝으로	-10.8742
사우루스	-10.8743
▁치르	-10.8743
▁방언	-10.8743
▁1927	-10.8744
▁때의	-10.8744
▁담고	-10.8744
놓은	-10.8745
▁약칭	-10.8746
Pr	-10.8746
▁전쟁의	-10.8747
▁관객	-10.8749
▁출신이다	-10.8752
▁북미	-10.8754
▁집필	-10.876
▁영혼	-10.876
α	-10.8761
▁북서쪽	-10.8761
▁유럽에서	-10.8762
망을	-10.8762
▁휘하	-10.8763
▁대표적	-10.8765
二	-10.8765
▁강릉	-10.8766
▁거라	-10.8767
니카	-10.8769
▁진단	-10.8775
▁맺고	-10.8778
▁열었다	-10.8779
▁교리	-10.8779
▁싶다	-10.8783
▁말할	-10.8783
안타	-10.8785
▁오류	-10.8787
독립	-10.8788
▁KT	-10.8791
Gr	-10.8794
▁졸	-10.8796
▁오버	-10.8798
▁찾을	-10.8799
템	-10.88
하라고	-10.8801
있고	-10.8802
갱	-10.8802
▁수컷	-10.8803
▁간격	-10.8806
▁기다려야	-10.8807
▁중의	-10.8809
mer	-10.881
▁보스턴	-10.8813
▁들어갔	-10.8815
▁버려	-10.8815
상품	-10.8816
▁실천	-10.8817
퉁	-10.8817
▁개장	-10.8817
年	-10.8817
때문에	-10.8821
▁적극적으로	-10.8823
▁입주	-10.8829
하마	-10.8831
▁노리	-10.8831
안전	-10.8833
▁샌	-10.8834
▁조상	-10.8834
▁들어온	-10.8835
센트	-10.8838
nd	-10.8839
▁들여	-10.8839
▁인터페이스	-10.884
▁1908	-10.8845
▁일요일은	-10.8845
▁윈도	-10.8846
먼트	-10.8847
代	-10.8847
시스템	-10.885
▁각자	-10.8852
▁맺었다	-10.8852
▁이름이다	-10.8857
▁후에도	-10.8857
▁국적	-10.8858
▁동남	-10.8859
▁정조	-10.8859
▁1905	-10.886
▁하나가	-10.886
▁부속	-10.8862
▁좁	-10.8862
▁많았다	-10.8863
스톤	-10.8865
▁인천광역시	-10.8866
룽	-10.8866
▁내장	-10.8868
▁춘	-10.8871
▁나눠	-10.8873
▁올린	-10.8874
후보	-10.8876
았던	-10.8876
▁이온	-10.8879
▁기능이	-10.8879
▁심한	-10.8881
▁1917	-10.8881
▁머리를	-10.8882
gra	-10.8884
▁일어난다	-10.8886
▁최근에	-10.8886
~3	-10.8888
스틱	-10.8888
▁스카이	-10.8891
▁경남	-10.8892
리코	-10.8892
社	-10.8892
▁결심	-10.8893
▁걷	-10.8893
▁종교적	-10.8894
OR	-10.8896
전자	-10.8899
▁동반	-10.8899
▁초청	-10.8899
▁제외하고	-10.8902
▁김구	-10.8903
▁방위	-10.8909
▁스탈린	-10.8911
▁커버	-10.8913
▁43	-10.8914
▁전작	-10.8914
lan	-10.8914
▁식품	-10.8916
▁쓴다	-10.8917
▁원에서	-10.8918
▁정부에	-10.892
드리면	-10.8923
▁문화재자료	-10.8923
이라며	-10.8929
通	-10.893
▁자르	-10.893
▁So	-10.8931
웨어	-10.8933
▁후퇴	-10.8933
▁산화	-10.8938
▁괜찮아	-10.8938
들이다	-10.894
▁빌라	-10.8941
▁주식	-10.8941
ED	-10.8942
▁나갔	-10.8944
▁가공	-10.8945
▁아무도	-10.8946
▁대동	-10.8946
▁임시정부	-10.8947
▁가능하죠	-10.8947
드라마	-10.8947
▁앤드	-10.8948
융	-10.8949
운동을	-10.8951
="	-10.8951
▁하드	-10.8951
BA	-10.8951
여자	-10.8953
으니까	-10.8958
▁00:	-10.8961
▁의미로	-10.8961
▁이용하는	-10.8962
▁편지	-10.8963
▁사찰	-10.8963
▁하와이	-10.8964
▁전형적인	-10.8964
ID	-10.8966
▁To	-10.8967
▁프랑스군	-10.8967
기능	-10.8967
▁경향이	-10.8969
▁남았	-10.897
▁자세	-10.8973
▁사용하지	-10.8973
▁41	-10.8974
검사	-10.8975
▁아무런	-10.8976
▁일행	-10.8977
▁동경	-10.8978
▁복구	-10.8979
▁바르셀로나	-10.8979
▁팔아요	-10.8979
▁로션	-10.8985
▁국물	-10.8988
▁대결	-10.8989
▁Le	-10.8989
▁랩	-10.8992
▁JR	-10.8996
▁없애	-10.8996
▁선불	-10.8998
▁극복	-10.9
▁외계	-10.9002
▁겨우	-10.9003
▁똑같은	-10.9003
졌는데	-10.9005
▁세트로	-10.9007
ts	-10.9011
ev	-10.9011
▁서방	-10.9012
아키	-10.9012
▁46	-10.9013
시켰	-10.9013
흠	-10.9014
▁본토	-10.9014
▁다녀	-10.9015
▁다음의	-10.9015
▁스토	-10.9018
▁영조	-10.9019
▁계획이	-10.902
後	-10.9021
▁미야	-10.9023
▁참가하였다	-10.9024
보험	-10.9024
▁스타디움	-10.9025
없	-10.9025
▁모양으로	-10.9027
▁반지	-10.9028
▁이어서	-10.9029
▁입대	-10.903
▁도쿄도	-10.9032
▁삭제	-10.9033
▁옮겼다	-10.9035
▁죽을	-10.9036
경찰서	-10.9036
▁인접	-10.9037
▁내야	-10.9037
▁명칭으로	-10.9038
▁속의	-10.9042
▁처분	-10.9043
여서	-10.9044
守	-10.9044
New	-10.9045
▁죽자	-10.9049
인조	-10.9053
▁대부분을	-10.9058
▁가속	-10.9059
▁들었다	-10.906
▁많고	-10.906
▁흥미	-10.9062
DP	-10.9062
군단	-10.9063
▁쓰기	-10.9064
▁월요일	-10.9065
하라는	-10.9066
con	-10.9067
속도	-10.9068
▁사이즈로	-10.9071
ES	-10.9071
_8	-10.9073
▁44	-10.9074
▁영토를	-10.9075
▁강하게	-10.9076
▁토벌	-10.9084
▁적응	-10.9086
▁장사	-10.9088
ern	-10.9089
▁포함된다	-10.9091
▁되기도	-10.9092
▁손에	-10.9092
▁개수	-10.9093
데르	-10.9095
▁아티스트	-10.9098
▁700	-10.9102
단위	-10.9103
▁카드는	-10.9105
▁이익	-10.9107
아버지	-10.9108
녹	-10.9109
▁안나	-10.9112
▁담배	-10.9113
LA	-10.9113
▁쿠바	-10.9114
왈	-10.9117
▁국방부	-10.9121
▁상품권	-10.9122
▁병사들	-10.9123
놓고	-10.9128
▁총선에서	-10.913
▁반대하는	-10.913
▁됐어요	-10.914
▁자이언츠	-10.914
▁신장	-10.9143
▁정통	-10.9145
▁원수	-10.9146
е	-10.9152
▁미국으로	-10.9152
▁당일	-10.9153
▁글씨	-10.9157
▁조금씩	-10.916
▁재단	-10.9161
▁한우	-10.9164
▁발레	-10.9164
▁이들이	-10.9165
▁수밖에	-10.9165
평론가	-10.9166
▁비롯해	-10.9166
▁걸리나요	-10.9167
유키	-10.9169
▁아이가	-10.9169
▁감독은	-10.9173
▁대칭	-10.9176
▁집으로	-10.9177
▁모토	-10.9179
▁사유	-10.9179
▁사막	-10.918
▁KBO	-10.918
▁발표되었다	-10.9181
▁대로	-10.9183
▁추대	-10.9184
▁사원	-10.9184
공항	-10.9185
▁부상으로	-10.9186
▁국가대표	-10.9187
▁석사	-10.9188
▁아스	-10.9188
▁힙합	-10.9191
스텔	-10.9194
▁예전	-10.9194
八	-10.9198
▁배열	-10.9201
▁톨	-10.9203
▁학사	-10.9203
▁포장해주세요	-10.9204
▁진정	-10.9205
▁평면	-10.9206
▁이걸로	-10.9212
▁세우고	-10.9213
▁출연하였고	-10.9213
업체	-10.9215
ug	-10.9217
▁일련의	-10.9218
▁캄	-10.9219
▁주니어	-10.9223
▁달하는	-10.9223
▁로즈	-10.9224
▁지리	-10.9226
cy	-10.9229
▁47	-10.923
ook	-10.9231
▁않았지만	-10.9232
▁인터뷰	-10.9236
fe	-10.9237
이었는데	-10.9237
▁랭	-10.9237
▁차트에서	-10.9238
▁역사가	-10.9239
▁의견을	-10.9241
▁죽고	-10.9244
▁고르	-10.9245
하면서도	-10.9246
▁냉동	-10.9247
화되었다	-10.9249
▁개막	-10.9252
▁흡	-10.9254
▁인터뷰에서	-10.9254
역사	-10.9255
시리즈	-10.9256
▁무관	-10.9258
주시면	-10.9259
▁또다른	-10.9259
▁원시	-10.9259
▁셋째	-10.9261
▁찍어	-10.9261
하겠다고	-10.9262
번지	-10.9263
▁시계	-10.9263
텍	-10.9263
▁소위	-10.9264
▁곡선	-10.9265
▁한신	-10.9266
▁성과	-10.9267
건설	-10.9267
▁알았어	-10.927
▁뮤직비디오	-10.928
산성	-10.9281
▁캔	-10.9283
았는데	-10.9285
▁결제할게요	-10.9287
min	-10.9287
▁아냐	-10.9287
▁양복	-10.9289
▁당국	-10.9289
▁플로	-10.9294
빨	-10.9294
뤼	-10.9294
▁반응을	-10.9295
프랑스	-10.9295
▁블록	-10.9296
▁구두	-10.9296
▁양국	-10.9299
굿	-10.93
▁나이에	-10.93
▁드러나	-10.9301
▁덕분에	-10.9301
▁페이지	-10.9304
si	-10.9307
▁차지하였다	-10.931
▁타워	-10.931
시키면	-10.931
앨범	-10.931
사항	-10.9311
pl	-10.9313
즈미	-10.9314
▁북극	-10.9314
禮	-10.9316
▁상호작용	-10.932
9%	-10.932
▁대해서도	-10.9323
▁멘	-10.9323
▁콜롬비아	-10.9323
▁작아	-10.9325
▁생태	-10.9329
벌레	-10.9331
▁위대한	-10.9331
▁이행	-10.9332
▁횡	-10.9333
깨	-10.9334
▁되었는데	-10.9336
▁비판을	-10.9336
▁얼마씩	-10.9337
▁소득	-10.9338
▁명칭이	-10.9339
▁포함해	-10.9343
▁싼	-10.9343
▁사건에	-10.9346
아르	-10.9348
▁원하시는	-10.9348
▁무력	-10.9349
바나	-10.935
▁근육	-10.935
▁글로벌	-10.9351
▁속해	-10.9352
▁세리에	-10.9353
▁돌아왔다	-10.9356
▁싶어요	-10.9356
랴	-10.9359
▁동일본	-10.936
▁찾으러	-10.9361
▁성직자	-10.9362
▁활발	-10.9363
:1	-10.9366
▁시작해	-10.9368
로서는	-10.9369
▁갈아	-10.937
▁75	-10.937
▁아무것도	-10.9371
▁방송을	-10.9371
▁주재	-10.9371
▁곳을	-10.9375
▁입사	-10.9376
▁삼았다	-10.9378
▁삽입	-10.9379
▁어두운	-10.9379
▁주된	-10.9383
▁남동쪽	-10.9383
▁대답	-10.9387
▁넘겨	-10.9387
생산	-10.9388
▁샘플	-10.9388
▁구상	-10.9393
생물	-10.9395
▁항해	-10.9397
▁포켓볼	-10.9398
樂	-10.9402
▁예전에	-10.9404
und	-10.9405
н	-10.941
▁북동쪽	-10.9411
▁생애	-10.9412
ans	-10.9416
▁갖추	-10.9421
▁저렴	-10.9426
▁명문	-10.9427
▁물어	-10.9427
▁변신	-10.943
▁지휘관	-10.9432
▁도중에	-10.9433
▁di	-10.9433
▁설치류	-10.9435
▁이념	-10.9438
▁with	-10.9439
처리	-10.9441
▁두려워	-10.9442
▁마치고	-10.9444
관계를	-10.9446
▁생겼	-10.9446
▁거점	-10.9447
▁떨	-10.9451
cl	-10.9454
▁못하게	-10.9455
▁콤	-10.9455
Mar	-10.9456
훈련	-10.9456
됐고	-10.9459
▁사람에게	-10.946
▁플로리다	-10.9462
▁막아	-10.9462
▁먹어도	-10.9462
▁1906	-10.9463
였기	-10.9464
女	-10.9466
▁극단	-10.9466
▁많지	-10.9466
딜	-10.9467
▁180	-10.9468
통일	-10.9471
▁죽었	-10.9472
▁상태에	-10.9475
▁흐르	-10.9482
▁처음에	-10.9484
▁에리	-10.9487
▁두번째	-10.949
▁컨	-10.9492
힘	-10.9492
▁빌딩	-10.9497
슈타인	-10.9503
라노	-10.9504
▁군수	-10.9504
▁몸무게	-10.9506
▁화장품	-10.9506
▁비슷하다	-10.9511
친다	-10.9511
▁생각을	-10.9512
▁막기	-10.9512
테이션	-10.9512
▁돌파	-10.9513
▁튜	-10.9514
論	-10.9514
▁불화	-10.9517
비행	-10.9517
▁해협	-10.9518
▁있음	-10.9523
츠키	-10.9523
▁십자군	-10.9523
▁()	-10.9523
큰	-10.9524
▁탑승	-10.9525
▁플레	-10.9526
▁옹	-10.9526
▁프로세서	-10.9526
▁저작	-10.9528
호와	-10.9529
▁보냈	-10.953
祖	-10.953
▁싶은	-10.9531
▁그렇죠	-10.9531
ner	-10.9533
▁넣고	-10.9535
▁티베트	-10.9535
캠	-10.9538
▁입은	-10.9538
▁사건의	-10.9541
스틴	-10.9541
툼	-10.9542
ical	-10.9544
▁야당	-10.9544
해드리겠습니다	-10.9544
▁비싸요	-10.9548
▁예방	-10.9552
▁거친	-10.9552
▁데뷔했다	-10.9554
▁데이터를	-10.9554
華	-10.9554
▁프랑	-10.9555
▁물러	-10.9556
▁잠수함	-10.9559
현재	-10.9559
▁예외	-10.9559
▁선교사	-10.956
▁그리스의	-10.9563
▁늑대	-10.9563
▁하시나요	-10.9564
圖	-10.9566
▁가족들	-10.9567
▁깨끗	-10.957
que	-10.9572
롯	-10.9572
▁않나요	-10.9574
▁당연히	-10.9574
▁차지한다	-10.9577
▁먹는다	-10.9577
▁많았	-10.9578
▁끝나고	-10.9578
▁1,000	-10.9579
▁발매한	-10.958
▁중에서도	-10.958
ME	-10.9583
▁이곳에서	-10.9583
▁이르기까지	-10.9587
그레	-10.9588
여래	-10.9593
▁박근혜	-10.9595
케이크	-10.9595
꼬리	-10.9596
▁인근에	-10.9597
▁산지	-10.9607
▁사촌	-10.9607
▁추적	-10.9608
▁세력이	-10.961
▁가치를	-10.9614
▁넣어주세요	-10.9616
▁싶은데요	-10.9617
▁억제	-10.9617
▁잃어	-10.962
▁수백	-10.9621
렇	-10.9622
▁코파	-10.9623
▁댄스	-10.9624
공주	-10.9626
▁한국에서	-10.9627
〈	-10.9627
▁약화	-10.9628
▁소식	-10.9631
▁붙잡	-10.9634
▁서른	-10.9635
▁찾아가	-10.9637
▁받으며	-10.9639
▁사격	-10.964
ish	-10.9641
▁올해의	-10.9641
▁톱	-10.9644
▁아사	-10.9646
▁본명은	-10.9647
▁없기	-10.9649
즌	-10.965
▁홀로	-10.9653
▁잭	-10.9654
▁물이	-10.9656
▁영향력을	-10.9658
▁인절미	-10.966
▁주목을	-10.966
▁가자	-10.9661
▁하다가	-10.9662
▁관해	-10.9664
마쓰	-10.9664
gu	-10.9669
▁누군가	-10.9672
▁알파	-10.9672
ina	-10.9674
▁장점	-10.9674
▁누르	-10.9677
▁구성하는	-10.9679
月	-10.968
▁출전하여	-10.968
▁농촌	-10.9682
▁전체를	-10.9682
尙	-10.9684
▁한나라당	-10.9685
▁처방	-10.9686
▁닭	-10.9687
집합	-10.9687
▁보건	-10.969
Re	-10.9692
▁과학적	-10.9693
▁제품으로	-10.9695
▁로렌	-10.9698
자치	-10.9698
▁졸업한	-10.9699
▁관계는	-10.9711
딸	-10.9714
▁나폴리	-10.9714
▁왕조의	-10.9715
▁주변의	-10.9716
ka	-10.9717
▁조종	-10.9718
▁분화	-10.972
결정	-10.9723
▁뜻이다	-10.9723
▁학부	-10.9724
▁지칭	-10.9724
▁잘나가요	-10.9725
잘	-10.9726
▁떨어	-10.9728
나리	-10.9729
▁포스트	-10.9733
▁같습니다	-10.9734
▁에너지를	-10.9734
티브	-10.9735
에너지	-10.9736
뉴스	-10.9737
▁탕수육	-10.9737
▁없었던	-10.9737
▁사라지	-10.9739
▁칼리	-10.974
▁급속	-10.9741
렁	-10.9741
샬	-10.9741
MI	-10.9742
▁재위	-10.9751
▁출현	-10.9752
▁주류	-10.9756
▁평등	-10.9756
생활을	-10.9757
▁관계에	-10.9757
▁얻게	-10.9761
▁강력	-10.9761
▁독점	-10.9762
▁스승	-10.9763
▁살았다	-10.9764
자키	-10.9764
드려요	-10.9765
▁챙겨	-10.9766
▁관중	-10.9768
▁남아메리카	-10.9769
조약	-10.977
▁유대	-10.9773
▁요즘은	-10.9773
▁웹사이트	-10.9774
▁주거	-10.9775
ee	-10.9776
az	-10.9776
▁고등학교이다	-10.9778
▁x	-10.9781
협의회	-10.9784
▁얻	-10.9786
▁매물이	-10.9789
▁재즈	-10.9795
▁진동	-10.9796
pa	-10.9797
년까지는	-10.9801
▁거둔	-10.9801
ik	-10.9802
▁소리를	-10.9803
▁부처	-10.9804
증권	-10.9805
미디어	-10.9806
高等學校	-10.9815
▁사신	-10.9816
우주	-10.9816
황후	-10.9819
▁정체	-10.9819
▁세워진	-10.9822
▁이어져	-10.9824
렘	-10.9824
▁자본주의	-10.9824
▁상자	-10.9825
▁이론을	-10.9828
보드	-10.9829
정신	-10.983
▁–	-10.983
act	-10.9831
▁전해진다	-10.9831
木	-10.9832
▁식량	-10.9833
崔	-10.9836
▁물고기	-10.9837
▁지금도	-10.9838
TS	-10.9839
주택	-10.984
블리	-10.9842
▁납치	-10.9844
▁길이가	-10.9844
원씩	-10.9845
▁동화	-10.9851
▁윗	-10.9852
▁뛰어나	-10.9855
▁문법	-10.9855
뚝	-10.9857
▁폐지되었다	-10.9859
▁발생한다	-10.9864
劉	-10.9865
▁조항	-10.9866
▁압축	-10.9867
▁섬에	-10.9867
분야	-10.9868
▁끊어	-10.9868
하루	-10.9869
▁강도	-10.987
▁판정	-10.987
▁이루어진다	-10.9871
장애	-10.9871
▁촉진	-10.9872
▁캐나다의	-10.9878
시키려	-10.9882
▁아니었다	-10.9889
▁나쁜	-10.9889
▁몰아	-10.9889
▁토마스	-10.989
▁불렀	-10.9894
▁빅토리아	-10.9894
▁약탈	-10.9897
▁자신은	-10.9897
▁진술	-10.9902
▁세상에	-10.9903
ier	-10.9903
▁접하고	-10.9907
~2	-10.9912
▁보니	-10.9912
▁조별	-10.992
꼴	-10.992
차전에서	-10.992
되도록	-10.9921
▁동지	-10.9923
▁오리지널	-10.9923
▁경비	-10.9925
▁목격	-10.9925
이었기	-10.9928
port	-10.9928
▁이상을	-10.993
▁전세계	-10.9934
▁매각	-10.9936
▁농장	-10.9936
ime	-10.9937
▁간다	-10.9938
▁마이크로	-10.9938
▁뒤쪽	-10.9939
▁수비수	-10.9942
▁최종적으로	-10.9942
▁중동	-10.9942
▁얘	-10.9947
▁맞게	-10.9948
▁삼아	-10.9948
-15	-10.9948
RT	-10.9951
▁제품을	-10.9951
기하학	-10.9953
▁참모	-10.9954
▁수록되어	-10.9955
▁성격을	-10.9958
▁꺾	-10.9958
주의자들	-10.9961
조정	-10.9962
▁종족	-10.9962
▁전북	-10.9963
▁경사	-10.9966
▁어디로	-10.9966
▁실제로는	-10.9967
侯	-10.9969
▁스미스	-10.9971
▁공개되었다	-10.9972
▁주지	-10.9973
베스	-10.9973
▁다음으로	-10.9974
▁의미가	-10.9975
▁관심이	-10.9976
▁음반이다	-10.9977
▁발전을	-10.9978
▁훌륭한	-10.9978
▁정확하게	-10.9986
▁영국과	-10.9986
▁모델로	-10.9987
▁나오나요	-10.9988
▁컴	-10.999
▁저자	-10.9991
▁아메리칸	-10.9993
▁상수	-10.9995
늄	-10.9995
▁곧바로	-10.9995
▁가득	-10.9997
방법	-10.9999
▁어릴	-11.0002
▁약물	-11.0003
▁음악가	-11.0005
▁바람에	-11.0006
▁펼치	-11.0007
▁구워	-11.0014
▁지정되어	-11.0014
▁타이틀을	-11.0015
CD	-11.0015
▁목포	-11.0015
하였을	-11.0017
▁방금	-11.0019
重	-11.002
▁김씨	-11.0021
▁남서쪽	-11.0021
▁컬	-11.0024
아웃	-11.0025
▁리드	-11.0027
공무원	-11.0028
▁지내고	-11.0029
▁작품이	-11.0031
NG	-11.0033
▁쇠퇴	-11.0033
ture	-11.0033
▁자신들	-11.0035
▁명성을	-11.0036
십자	-11.0037
▁빗	-11.0039
다운	-11.0041
드릴께요	-11.0041
▁않았던	-11.0042
▁구성된다	-11.0043
정당	-11.0044
댐	-11.0045
▁not	-11.0052
매치	-11.0053
▁전남	-11.0056
비용	-11.0058
하우스	-11.0059
ous	-11.0061
▁서쪽으로는	-11.0065
▁수도권	-11.0066
▁메탈	-11.0067
▁드시는	-11.0069
▁모터	-11.007
▁투구	-11.007
▁Ar	-11.007
▁망원경	-11.0075
▁믿음	-11.0078
▁고안	-11.0081
▁필립	-11.0082
▁나이가	-11.0083
▁매체	-11.0084
▁간부	-11.0086
▁주위에	-11.0087
▁명시	-11.0087
▁웨일스	-11.0088
대대	-11.0089
▁수술을	-11.009
▁의병	-11.0092
▁창간	-11.0093
▁눈을	-11.0093
▁레이다	-11.0094
▁식으로	-11.0095
사이드	-11.0095
▁담은	-11.0096
▁승부	-11.0097
▁지원하는	-11.0098
_9	-11.0098
▁시사	-11.0101
▁케이크는	-11.0107
▁요미우리	-11.0109
▁유비	-11.0109
▁동쪽으로는	-11.011
▁총장	-11.011
▁약간의	-11.0112
▁내린	-11.0112
헬	-11.0117
▁봉해졌다	-11.0117
시절	-11.0118
▁보살	-11.0118
▁고구마	-11.0118
▁없었고	-11.0119
(4	-11.0119
▁기용	-11.012
▁샴푸	-11.0126
▁공학	-11.0126
(13	-11.0128
▁목숨을	-11.013
▁탐사	-11.0132
▁라이벌	-11.0133
▁하사	-11.0135
孝	-11.0135
▁소금	-11.014
▁곁	-11.014
중심	-11.0142
▁수직	-11.0143
▁66	-11.0148
책임	-11.0149
net	-11.0153
▁보르	-11.0154
구치	-11.0155
▁캠프	-11.0156
▁수감	-11.0157
▁언제나	-11.0158
아프리카	-11.0159
▁에센스	-11.016
▁들어왔	-11.0162
▁불리며	-11.0163
▁남쪽으로는	-11.0164
▁특허	-11.0165
▁도와드리겠습니다	-11.0165
▁내지	-11.0165
▁중요성	-11.0166
짝	-11.0167
원이고	-11.0168
▁획득하였다	-11.0169
▁다루는	-11.0177
했었	-11.0177
▁합동	-11.0178
레이트	-11.0179
쑤	-11.0182
▁방송된	-11.0182
▁여동생	-11.0182
▁소규모	-11.0186
業	-11.0186
▁오빠	-11.019
▁거기서	-11.019
▁양도	-11.0192
▁미분	-11.0194
AD	-11.0194
▁썰어	-11.0195
복지	-11.0196
▁빌리	-11.0198
▁모습으로	-11.02
▁상원	-11.0201
▁호흡	-11.0202
▁승차	-11.0204
▁날아	-11.0204
▁탈색	-11.0205
▁필요로	-11.0205
▁김영	-11.0205
음에도	-11.0209
행성	-11.021
▁직선	-11.0211
▁시루떡	-11.0212
▁밀라노	-11.0213
레이크	-11.0214
▁경유	-11.0215
字	-11.0216
▁구사	-11.0219
MB	-11.0221
р	-11.0225
▁권유	-11.0225
모양	-11.0227
▁입었다	-11.0229
▁반환	-11.0231
▁지나지	-11.0235
툰	-11.0241
▁드러내	-11.0242
▁캘리포니아주	-11.0248
▁정도이다	-11.0249
pt	-11.0249
▁밀리	-11.025
▁역전	-11.025
쉐	-11.025
▁고기는	-11.0253
▁영광	-11.0253
▁독일어	-11.0256
기획	-11.0257
▁나타난	-11.0258
▁지중해	-11.0259
타케	-11.026
▁전향	-11.0263
▁있네요	-11.0267
▁교수로	-11.0267
▁확인할	-11.0268
▁선형	-11.0269
▁상영	-11.027
▁상을	-11.027
▁멸종	-11.0272
▁설치되었다	-11.0274
▁나선	-11.0275
▁기관차	-11.0276
▁1904	-11.0278
▁겁	-11.0279
▁이하의	-11.028
NS	-11.0283
▁토너먼트	-11.0285
ort	-11.0285
▁충분한	-11.0285
▁이어졌다	-11.0286
▁소매	-11.0286
ith	-11.0288
캘	-11.0289
▁주어진	-11.029
▁용어는	-11.0292
▁친일	-11.0292
▁스카	-11.0294
닷	-11.0294
▁운송	-11.0295
▁유키	-11.03
▁공국	-11.0301
▁마틴	-11.0302
▁의석	-11.0303
정권	-11.0306
학부	-11.0307
▁계기가	-11.0307
봤	-11.0308
▁관점	-11.0309
▁말하고	-11.0312
▁수영장	-11.0312
▁발족	-11.0314
▁모음	-11.0315
▁졸업했다	-11.0315
、	-11.0315
▁1896	-11.0316
▁분산	-11.0316
▁관계자	-11.0317
▁전승	-11.0319
▁털이	-11.032
▁대성당	-11.0321
▁문신	-11.0321
▁흙	-11.0321
황제	-11.0322
▁복사	-11.0323
▁마케도니아	-11.0324
殿	-11.0324
킬로미터	-11.0324
▁법안	-11.0328
▁전제	-11.0331
▁운명	-11.0331
강전	-11.0335
gen	-11.0335
나오	-11.0336
▁했어요	-11.0337
▁한잔	-11.0339
▁책은	-11.034
▁스웨덴의	-11.0341
갔고	-11.0341
▁동인	-11.0342
▁좋습니다	-11.0344
▁제공하고	-11.0346
▁설립한	-11.0348
▁금액이	-11.0349
▁레이블	-11.0349
▁안돼	-11.035
▁적색	-11.0351
▁그래프	-11.0352
▁없으신가요	-11.0355
▁못할	-11.0356
▁파울	-11.0359
쥬	-11.0359
▁병력을	-11.036
푸스	-11.036
▁뿐이다	-11.0361
론적	-11.0362
▁개업	-11.0364
빅	-11.0367
펙	-11.0368
▁밀도	-11.0369
▁중간에	-11.037
▁완벽	-11.0371
陵	-11.0372
▁원인데	-11.0372
▁너희	-11.0373
▁뭔가요	-11.0374
▁끝났	-11.0376
▁연령	-11.0376
▁색상이	-11.038
▁풍부한	-11.0381
▁지원한다	-11.0381
▁등장인물	-11.0381
▁목걸이	-11.0382
▁사진을	-11.0383
▁수준의	-11.0384
▁주요한	-11.0384
▁면에서	-11.0385
▁이명박	-11.0386
▁야스	-11.0387
▁버거	-11.0387
▁부품	-11.0388
이어서	-11.039
▁예언	-11.0391
▁알려주	-11.0394
▁바꿀	-11.0395
▁맞지	-11.0396
자였던	-11.0398
▁규슈	-11.0403
bl	-11.0403
unt	-11.0405
▁어때요	-11.0407
▁그랜드	-11.0408
▁페루	-11.0413
▁동아	-11.0416
▁싸웠	-11.0416
CE	-11.0418
▁퍼져	-11.0419
▁일환으로	-11.0419
▁획득했다	-11.0424
밸	-11.0425
엣	-11.0425
內	-11.0425
▁반면에	-11.0425
▁원자력	-11.0425
개씩	-11.0427
▁이날	-11.0427
▁샘	-11.0429
▁기반을	-11.0429
▁아프가니스탄	-11.0429
▁냄새	-11.0429
튜	-11.043
하였기	-11.0431
▁사무실은	-11.0431
▁드세요	-11.0432
▁언니	-11.0433
▁때문이었다	-11.0433
▁대학에서	-11.0435
▁부모님	-11.0437
▁것보다	-11.0437
▁놀이	-11.0441
거예요	-11.0441
▁해제	-11.0442
pp	-11.0445
▁집회	-11.0446
▁언제쯤	-11.0446
▁금강	-11.0449
▁가깝	-11.045
▁대구광역시	-11.0451
立	-11.0451
▁공간을	-11.0451
▁And	-11.0452
해진다	-11.0452
cc	-11.0454
▁추락	-11.0455
▁한데	-11.0458
▁1911	-11.0458
▁가장자리	-11.046
▁흡연실	-11.046
▁구체적으로	-11.0461
▁직장	-11.0464
봐야	-11.0468
▁밤에	-11.0468
라이프	-11.0469
결과	-11.047
▁변화가	-11.0471
춰	-11.0472
▁행위를	-11.0472
iss	-11.0472
해왔다	-11.0474
닦	-11.0477
▁광역	-11.0479
▁소관	-11.0479
▁겸임	-11.0481
▁노란색	-11.0482
▁친정	-11.0483
▁의거	-11.0484
▁드실	-11.0484
▁용량	-11.0487
▁회로	-11.0491
▁(1	-11.0491
▁대회이다	-11.0493
▁니트	-11.0496
▁실업	-11.05
▁나갔다	-11.05
▁재개발	-11.0501
▁게임이다	-11.0503
▁아마추어	-11.0504
▁최신	-11.0507
자원	-11.0508
▁동영상	-11.0514
샹	-11.0517
名	-11.0517
▁회원가입	-11.0517
▁역사는	-11.0519
▁이탈	-11.0521
▁사이를	-11.0521
▁오염	-11.0524
ster	-11.0524
▁규모가	-11.0525
▁파트너	-11.0526
▁펜션	-11.0528
▁광산	-11.0532
▁묘소	-11.0532
인치	-11.0533
▁겉	-11.0535
▁총회	-11.0537
▁발효	-11.0538
뤄	-11.0539
▁무늬	-11.0539
▁현상을	-11.054
Co	-11.0543
▁알렉산더	-11.0544
▁화려한	-11.0544
▁물러나	-11.0546
▁문하	-11.0546
더니	-11.055
▁나왔어요	-11.0551
▁BBC	-11.0552
▁부탁드립니다	-11.0558
▁우익	-11.056
▁유역	-11.0561
스럽	-11.0562
래요	-11.0567
▁일원으로	-11.0567
▁라틴	-11.0569
학과를	-11.0571
▁거울	-11.0572
▁정권을	-11.0575
▁당해	-11.0575
▁구간이	-11.0576
▁내려가	-11.0576
▁선두	-11.058
▁배정	-11.0584
▁한강	-11.0587
▁압박	-11.0587
we	-11.0587
▁침해	-11.0587
▁토마토	-11.0589
▁그동안	-11.059
▁형성된	-11.0593
su	-11.0594
▁65	-11.0597
롭게	-11.0597
졌으나	-11.0597
만원입니다	-11.0599
▁차지하는	-11.06
바흐	-11.0602
플리	-11.0602
▁몸길이	-11.0606
▁Ho	-11.0607
▁회담	-11.0609
tro	-11.061
▁성과를	-11.0611
▁북쪽에	-11.0613
sch	-11.0614
▁후반에	-11.0617
▁진나라	-11.0617
▁바닐라	-11.062
레이션	-11.0622
oo	-11.0623
▁음료수	-11.0627
判	-11.0629
▁명으로	-11.0629
▁간섭	-11.063
재위	-11.063
▁호환	-11.0632
▁당장	-11.0633
▁힘이	-11.0633
▁알레	-11.0638
▁잃고	-11.0639
NE	-11.0639
▁알바니아	-11.0642
▁얻기	-11.0643
바지	-11.0643
▁특이	-11.0644
▁미스	-11.0648
▁버리고	-11.0648
▁고민	-11.0655
톡	-11.0656
▁차체	-11.0659
집단	-11.0659
▁아까	-11.0661
▁보세요	-11.0663
▁국기	-11.0665
NT	-11.0666
▁원피스	-11.0671
▁유발	-11.0671
▁기재	-11.0673
현재의	-11.0677
▁준비되어	-11.0681
▁도카이	-11.0684
▁존경	-11.0684
▁냈다	-11.0685
맥스	-11.0686
ix	-11.0687
▁바둑	-11.0688
▁봉기	-11.0688
▁헤드	-11.0691
▁육천	-11.0691
▁적절한	-11.0692
▁양주	-11.0692
▁단종	-11.0693
▁지름	-11.0693
▁윤리	-11.0695
▁사우스	-11.0695
전문학교	-11.0696
▁모래	-11.0696
▁유고슬라비아	-11.0696
줌	-11.0696
▁교향곡	-11.0696
dr	-11.0699
마치	-11.07
▁않았으며	-11.0703
▁모르는	-11.0705
년만에	-11.0706
▁법인	-11.071
▁설탕	-11.0712
▁찾으시는	-11.0716
히토	-11.0716
레이드	-11.0717
ps	-11.0721
▁지역구	-11.0721
하겠다	-11.0723
쫓	-11.0723
▁교역	-11.0725
▁방안	-11.073
▁스코	-11.0733
폴리	-11.0735
▁학생들이	-11.0736
▁끝이	-11.0738
▁국토	-11.0738
▁구경	-11.0741
▁공화당	-11.0742
▁팥	-11.0746
▁대만	-11.0749
▁주체	-11.0755
市	-11.0755
▁제약	-11.0756
▁입증	-11.0757
▁민족주의	-11.0759
▁당했다	-11.0761
▁가질	-11.0762
ana	-11.0763
▁음모	-11.0764
▁파키스탄	-11.0764
▁위치가	-11.0766
▁유닛	-11.0769
▁골라	-11.0771
▁콘텐츠	-11.0773
▁보이며	-11.0775
5,000	-11.0775
공격	-11.0776
▁아르메니아	-11.0782
▁돔	-11.0783
었어	-11.0785
옵	-11.0787
兵	-11.0788
▁벗어	-11.079
▁권한을	-11.0791
▁개찰구	-11.0791
▁고교	-11.0792
▁뱀	-11.0795
▁합계	-11.0796
▁업데이트	-11.0796
▁유입	-11.0796
▁텀블러	-11.0801
wa	-11.0801
넣	-11.0802
▁리눅스	-11.0805
面	-11.0805
▁대령	-11.0807
▁생크림	-11.0809
▁이사회	-11.0814
派	-11.0814
▁동전	-11.0816
▁지표	-11.0816
▁벌였다	-11.0817
‘	-11.0817
▁반사	-11.0818
▁우수한	-11.0819
산동	-11.0825
sk	-11.0826
▁따뜻하게	-11.0829
▁조끼	-11.083
버터	-11.0834
ung	-11.0834
ost	-11.0834
▁노무현	-11.0837
노미야	-11.0838
▁후쿠	-11.0839
▁마산	-11.0841
옌	-11.0842
▁짓고	-11.0844
▁정확	-11.0848
▁지역에서는	-11.0848
쟁이	-11.0849
▁모험	-11.085
▁똑같아요	-11.0851
여성	-11.0852
▁교차	-11.0856
▁케이블	-11.0859
시민	-11.0859
▁등장한	-11.0861
▁성함이	-11.0865
▁펄	-11.0865
bu	-11.0867
▁공룡	-11.0869
寧	-11.0869
▁라면	-11.0875
▁남긴	-11.0878
▁하드웨어	-11.0879
▁파생	-11.0879
노프	-11.0879
▁물리적	-11.0879
▁첫번째	-11.088
yn	-11.0882
集	-11.0883
▁삼각	-11.0883
▁호조	-11.0883
종합	-11.0884
▁아니지만	-11.0888
John	-11.0888
▁용기	-11.0888
▁멈추	-11.0892
▁기념물	-11.0893
▁혹	-11.0893
▁같은데요	-11.0893
▁동굴	-11.0894
▁애국	-11.0895
▁끝났다	-11.0896
▁채권	-11.0897
▁추가되었다	-11.0897
▁도심	-11.0897
▁중국어	-11.0897
▁왜냐하면	-11.0901
ite	-11.0902
▁my	-11.0903
▁계절	-11.0909
▁세조	-11.091
▁펴	-11.0914
▁pro	-11.0916
상으로는	-11.0918
▁결과적으로	-11.0919
▁좌익	-11.0919
▁모듈	-11.092
▁긴급	-11.0922
▁공동으로	-11.0923
▁부근에	-11.0926
eb	-11.0928
▁재무	-11.0929
PA	-11.0932
▁얻었	-11.0933
▁수상자	-11.0935
▁항목	-11.0935
吉	-11.0938
▁밀도는	-11.0939
▁손가락	-11.0943
▁자회사	-11.0944
▁앞쪽	-11.0947
▁부호	-11.0954
▁인디	-11.0954
▁즐기	-11.0955
▁칼라	-11.0958
▁지연	-11.0959
인간	-11.0962
▁시청률	-11.0963
▁놓은	-11.0963
▁기기	-11.0966
홈런	-11.0967
▁거대	-11.0968
▁아파	-11.0968
▁도시이다	-11.097
▁카운터	-11.0971
펑	-11.0975
클럽	-11.0976
oul	-11.0976
▁고등학생	-11.0976
▁귀환	-11.0977
▁오징어	-11.098
DA	-11.0984
찜	-11.0985
▁스페셜	-11.0985
自	-11.0985
좀	-11.0986
▁1909	-11.0991
▁계단	-11.0991
득점	-11.0991
▁좌파	-11.0992
▁패턴	-11.0992
습니까	-11.0996
▁백성들	-11.0998
▁예루살렘	-11.0999
▁삼각형	-11.0999
▁고추	-11.0999
▁자료를	-11.1
▁공식적인	-11.1001
Te	-11.1002
▁your	-11.1003
▁거리를	-11.1003
孫	-11.1003
▁탐험	-11.1004
떨	-11.1004
▁자유롭게	-11.1005
▁당사자	-11.1007
▁51	-11.1008
또	-11.1008
監	-11.1008
조각	-11.1009
▁방향을	-11.1011
▁민주화	-11.1013
▁서독	-11.1015
衛	-11.1017
철학	-11.1018
▁세계적인	-11.1019
▁구간은	-11.1021
뿌	-11.1021
▁중립	-11.1021
▁오디션	-11.1022
▁문화적	-11.1025
재단	-11.1029
▁중화	-11.103
▁받기	-11.1032
끝	-11.1033
▁시대에는	-11.1037
▁아들이다	-11.1038
백화점	-11.1041
▁빨간색	-11.1043
▁초반에	-11.1048
▁안양	-11.1049
뭉	-11.105
▁노비	-11.1051
ctor	-11.1056
▁비잔티움	-11.1059
왜	-11.1061
▁준공	-11.1062
▁특급	-11.1064
▁랭킹	-11.1065
▁남아있다	-11.1067
▁상임	-11.1069
▁라테	-11.1069
▁작전을	-11.1069
▁성립한다	-11.1071
스탄	-11.1071
~4	-11.1072
▁52	-11.1074
▁이불	-11.1074
▁다양체	-11.1074
▁공격수	-11.1075
▁10%	-11.1081
듣	-11.1082
▁단위로	-11.1083
▁못했고	-11.1092
뻐	-11.1092
▁클래스	-11.1092
▁똑같	-11.1095
▁착수	-11.1096
Ju	-11.1096
臣	-11.1097
리즘	-11.1098
▁받으면	-11.1099
▁황후	-11.1099
▁칼리지	-11.1102
▁중계	-11.1103
雲	-11.1103
ris	-11.1104
▁오피스텔	-11.1106
▁남쪽에	-11.1107
▁버튼	-11.1107
▁활약하고	-11.1108
▁나가고	-11.1108
▁대사관	-11.1109
▁프랑크	-11.1109
▁낳았다	-11.111
▁졸업하였다	-11.1112
▁시호는	-11.1114
▁뭔가	-11.1114
랩	-11.1114
ara	-11.1115
덧	-11.1116
六	-11.1116
廣	-11.1116
▁동맹을	-11.1116
왔던	-11.1117
▁고지	-11.1117
▁철학자	-11.1117
경영	-11.1117
▁정도면	-11.1118
▁중개	-11.1119
건데	-11.112
▁아울러	-11.112
▁대서양	-11.1121
터미널	-11.1127
▁요구하는	-11.1128
權	-11.113
▁센트럴	-11.1134
▁옹호	-11.1136
▁빼고	-11.1142
物	-11.1144
▁나갈	-11.1144
▁착공	-11.1145
▁빠진	-11.1146
▁쉬운	-11.1147
▁모양을	-11.1148
ー	-11.1149
▁불리기도	-11.115
▁퇴각	-11.115
▁유지하고	-11.115
▁가능성을	-11.1152
▁Po	-11.1153
좋	-11.1156
▁쇼군	-11.1157
▁잘못된	-11.1158
▁정장	-11.1159
▁배제	-11.1159
▁번뇌	-11.1166
▁이야기가	-11.1166
▁애니	-11.1167
▁흥행	-11.1171
▁루트비히	-11.1172
타니	-11.1173
▁제발	-11.1173
▁루터	-11.1174
▁페리	-11.1174
▁MVP	-11.1177
▁필요성	-11.1178
▁한쪽	-11.118
Ar	-11.118
▁성씨	-11.1181
▁문제점	-11.1182
(5	-11.1182
ea	-11.1185
RE	-11.1185
▁일시	-11.1186
치오	-11.1186
▁정치인이다	-11.1186
▁유성	-11.1187
▁내내	-11.1187
효과	-11.1188
▁독자적인	-11.1191
태후	-11.1192
▁먹어	-11.1196
▁김해	-11.1196
▁상소	-11.12
▁엘리자베스	-11.1201
옴	-11.1201
시켰고	-11.1201
▁필름	-11.1201
▁서북	-11.1202
▁오십	-11.1203
▁시집	-11.1205
▁수강료	-11.1206
ET	-11.1206
▁발생했다	-11.1207
▁지어진	-11.1209
▁피난	-11.1209
▁화폐	-11.1213
▁낮아	-11.1215
▁몰락	-11.1215
▁전임	-11.1216
▁스톤	-11.1216
▁앞면	-11.1218
▁생각했다	-11.122
▁자전거	-11.122
▁말아	-11.1221
▁다룬	-11.1222
컷	-11.1222
▁점심	-11.1222
▁상상	-11.1223
▁원주	-11.1225
▁호출	-11.1226
로이드	-11.1227
▁신칸센	-11.1229
할때	-11.1231
박사	-11.1232
셉	-11.1234
曹	-11.1234
▁조기	-11.1237
▁대학생	-11.1238
자마자	-11.124
▁청소	-11.124
▁54	-11.1242
▁능력이	-11.1248
▁드라마이다	-11.1248
높	-11.1249
▁당선되었다	-11.125
▁연락처	-11.1251
▁표본	-11.1251
▁추천해	-11.1253
▁시드니	-11.1254
라떼	-11.1254
계열	-11.1254
▁기록하고	-11.1256
스페	-11.1261
포인트	-11.1262
▁육성	-11.1263
▁are	-11.1263
튀	-11.1263
▁에우	-11.1263
▁조식은	-11.1264
▁서일본	-11.1264
▁초래	-11.1265
▁검정색	-11.1265
▁할머니	-11.1267
▁노스	-11.1268
공동	-11.1268
선언	-11.1269
議	-11.1277
▁한국에서는	-11.1277
▁남양	-11.1284
▁편지를	-11.1285
컸	-11.1287
▁유신	-11.129
合	-11.1292
▁나라를	-11.1292
ax	-11.1292
▁목록은	-11.1292
폴리스	-11.1293
▁모집	-11.1293
▁스테이지	-11.1294
▁살려	-11.1295
플루	-11.1296
아메리카	-11.1296
▁별자리	-11.1297
▁젖	-11.1297
▁쇼핑	-11.13
▁놔	-11.1303
실점	-11.1303
▁여신	-11.1305
노바	-11.1309
ber	-11.1311
▁관광객	-11.1312
▁그럼에도	-11.1312
▁책봉	-11.1313
▁바꾸었다	-11.1313
▁괜찮으세요	-11.1316
▁길게	-11.1317
▁굉장히	-11.132
앞	-11.1322
▁통행	-11.1324
▁My	-11.1325
▁산악	-11.1325
▁거짓말	-11.1327
훈장	-11.1328
왔고	-11.1331
ade	-11.1333
▁지목	-11.1333
▁디자이너	-11.1335
▁야채	-11.1335
야하나요	-11.1338
▁드래곤	-11.134
▁훈장	-11.134
▁곤충	-11.1342
독일	-11.1343
▁해적	-11.1344
▁살해당	-11.1344
▁EP	-11.1346
히메	-11.1349
▁전류	-11.1351
뮬	-11.1354
▁고조	-11.1355
▁찾기	-11.1355
거래	-11.1362
▁소속되어	-11.1362
▁기온은	-11.1364
▁참가하여	-11.1365
▁중학생	-11.1368
▁비즈니스	-11.1368
rit	-11.1368
洪	-11.1373
▁출입구	-11.1378
見	-11.1378
▁작위	-11.1378
▁직위	-11.1379
Le	-11.1379
되므로	-11.1379
▁발견했다	-11.1382
▁확실히	-11.1383
▁con	-11.1383
▁결제해	-11.1385
▁정의할	-11.1385
즉	-11.1386
▁테오	-11.1386
ile	-11.1387
▁가래떡	-11.1388
▁생각하는	-11.1389
되죠	-11.1391
▁칩	-11.1392
▁성균관	-11.1392
▁문재인	-11.1393
▁1913	-11.1393
▁정교	-11.1394
타점	-11.1395
▁Man	-11.1396
▁버지니아	-11.1397
▁데뷔전을	-11.1399
▁활약하였다	-11.1399
▁경계를	-11.14
▁권고	-11.1402
▁스펙트럼	-11.1402
▁월드컵에서	-11.1405
▁않도록	-11.1406
▁가쓰	-11.1409
▁출구	-11.1409
▁비평	-11.1409
基	-11.1412
▁있으	-11.1413
▁성벽	-11.1413
행사	-11.1414
▁1915	-11.1414
▁태자	-11.1416
ium	-11.1418
▁아트	-11.1418
▁와인	-11.1418
쳤고	-11.1419
▁조화	-11.1421
▁가지게	-11.1423
▁맥주	-11.1424
▁흔들	-11.1429
▁어제	-11.143
▁다큐멘터리	-11.1431
넛	-11.1431
▁확인해	-11.1431
▁당신을	-11.1432
▁관련하여	-11.1436
▁도요	-11.1437
▁보여주고	-11.1439
▁꺾고	-11.1441
▁학교에서	-11.1442
▁멤버로	-11.1451
▁거슬러	-11.1452
▁호남	-11.1458
▁가능하며	-11.1461
▁순천	-11.1461
-7	-11.1462
▁미친	-11.1467
▁증기	-11.1469
▁일본에서는	-11.147
▁성공적으로	-11.147
▁매장에서	-11.1472
▁풀려	-11.1473
▁사직	-11.1474
▁사로잡	-11.1475
▁중이던	-11.1476
▁고무	-11.1479
-16	-11.1479
ML	-11.1479
▁국민당	-11.1479
▁마스터	-11.148
▁수록곡	-11.1482
▁지바	-11.1483
▁느껴	-11.1485
ste	-11.1485
▁사무소	-11.149
▁히데요시	-11.149
▁비슷하게	-11.149
▁군사적	-11.1496
▁근거로	-11.1497
눌	-11.1499
노부	-11.15
▁회원국	-11.1501
년대부터	-11.1504
ox	-11.1505
▁디즈니	-11.1509
대왕	-11.1512
▁존슨	-11.1517
▁고립	-11.1519
▁빠르	-11.1519
▁시체	-11.1519
받을	-11.152
▁자바	-11.152
▁포맷	-11.1521
인들에게	-11.1521
전투	-11.1521
De	-11.1522
▁특성을	-11.1523
▁NHK	-11.1524
郞	-11.1524
▁입문	-11.1526
ata	-11.1527
▁혜성	-11.1527
▁성종	-11.1528
鎭	-11.1529
▁기단	-11.1541
▁귀족들	-11.1542
▁전통적으로	-11.1542
▁무용	-11.1543
하르트	-11.1545
▁무선	-11.1546
▁서류	-11.1549
formula	-11.1549
▁존스	-11.155
▁코어	-11.155
끄러	-11.1551
▁폐기	-11.1553
▁업그레이드	-11.1553
콥	-11.1553
금융	-11.1562
▁내륙	-11.1568
分	-11.1568
▁20%	-11.1569
▁태어났으며	-11.157
▁자손	-11.1571
黃	-11.1573
▁것인지	-11.1578
▁샌프란시스코	-11.1578
▁눈물	-11.1581
갈색	-11.1581
더라	-11.1583
▁화합물	-11.1583
▁공전	-11.1584
루수	-11.1586
▁분리되어	-11.1588
▁관하여	-11.1588
▁복지	-11.1589
▁리듬	-11.159
▁인사들	-11.159
▁110	-11.1595
▁혜택	-11.1599
▁써서	-11.1601
▁회의에서	-11.1602
▁사물	-11.1602
▁승무원	-11.1603
핸	-11.1607
▁마친	-11.1609
종류	-11.1609
▁충성	-11.161
▁멤버들	-11.1611
靑	-11.1613
벅	-11.1613
直	-11.1613
▁봉사	-11.1614
빗	-11.1614
▁1895	-11.1618
▁다루고	-11.162
▁되요	-11.1622
▁매입	-11.1622
▁천천히	-11.1623
▁아이디어	-11.1623
▁왔는데요	-11.1625
▁관절	-11.1625
▁덧붙여	-11.1627
▁위기에	-11.163
▁49	-11.1632
▁관점에서	-11.1635
九	-11.1637
身	-11.1637
CS	-11.164
▁서서히	-11.1643
▁결정했다	-11.1643
▁정벌	-11.1643
OL	-11.1645
▁들어가서	-11.1646
▁꾀	-11.1647
▁데이터베이스	-11.1647
조건	-11.1649
▁중심부	-11.1649
▁봐야	-11.1652
▁일반적	-11.1653
▁사십	-11.1654
▁정도요	-11.1654
▁민간인	-11.1655
▁이르고	-11.1656
▁할까요	-11.1657
建	-11.1657
SE	-11.1661
▁똑같이	-11.1663
▁네이버	-11.1664
▁타이틀곡	-11.1668
▁디젤	-11.1673
▁유아	-11.1676
▁운반	-11.1679
ire	-11.1679
▁치러	-11.1681
▁선교	-11.1685
▁국장	-11.1691
▁던지	-11.1692
▁편곡	-11.1692
▁있잖아	-11.1695
▁조언	-11.1696
▁도장	-11.1699
▁중구	-11.17
US	-11.17
▁넘어가	-11.1703
▁구장	-11.1703
▁용도로	-11.1706
▁고베	-11.1707
▁쫓아	-11.1712
▁일체	-11.1714
▁주어졌다	-11.1715
▁동아시아	-11.1716
▁빠졌	-11.1716
順	-11.1717
▁적합	-11.1719
RI	-11.172
#	-11.1722
▁주름	-11.1724
▁발급	-11.1724
▁꼴	-11.1726
흡	-11.1727
▁닌텐도	-11.1727
▁훼손	-11.1727
▁가수이다	-11.1731
承	-11.1732
▁신임	-11.1733
lic	-11.1736
▁죽이고	-11.1736
▁중요하다	-11.1737
▁없으나	-11.1744
▁can	-11.1744
-8	-11.1745
▁배급	-11.1746
▁was	-11.1746
▁애플리케이션	-11.1747
▁햄	-11.1748
▁상대방	-11.175
▁포도주	-11.1751
▁발생하였다	-11.1752
▁되게	-11.1758
▁이후부터	-11.1759
▁사당	-11.1761
▁이익을	-11.1763
▁프린트	-11.1763
▁렌즈	-11.1763
▁카레	-11.1764
특별	-11.1766
▁추증	-11.1767
▁할당	-11.1768
▁우주선	-11.1769
▁Love	-11.1769
GA	-11.1771
▁먹기	-11.1775
▁나이트	-11.1776
uc	-11.1777
-18	-11.1777
▁나라에서	-11.178
▁판매량	-11.1781
▁mo	-11.1783
pre	-11.1786
▁구체적인	-11.1787
▁비틀즈	-11.1787
▁대책	-11.1787
클라	-11.1788
▁산타	-11.179
▁반격	-11.179
있던	-11.1792
▁박쥐	-11.1793
ger	-11.1793
▁흐르는	-11.1796
▁제목으로	-11.1798
▁바나나	-11.1799
▁원조	-11.1799
▁have	-11.1799
졌던	-11.1801
▁왕립	-11.1807
▁작품들	-11.1807
▁해임	-11.1808
▁툴	-11.1809
▁현존하는	-11.1812
렸던	-11.1813
▁공략	-11.1813
▁김영삼	-11.1814
▁축하	-11.1815
▁SF	-11.1815
▁그러니까	-11.1816
▁대주교	-11.1823
▁판타지	-11.1823
투표	-11.1827
▁추격	-11.1827
둬	-11.1828
▁트럭	-11.1829
hPa	-11.1832
▁상무	-11.1832
-12	-11.1835
▁안심	-11.1838
▁조심	-11.1838
▁급행	-11.184
꼬	-11.1841
▁위치하며	-11.1846
▁용산	-11.1847
▁For	-11.185
▁Ex	-11.1857
▁프로세스	-11.1859
▁전부터	-11.1859
TE	-11.186
▁항일	-11.1862
▁운행하는	-11.1862
朝	-11.1863
몸	-11.1864
▁허브	-11.1866
바이트	-11.1866
▁모른다	-11.1869
▁올림	-11.1869
았으나	-11.187
▁패전	-11.1871
▁아니죠	-11.1871
▁치렀다	-11.1873
▁본격적인	-11.1878
▁착륙	-11.1879
▁곡으로	-11.1879
▁계수	-11.1879
▁낼	-11.1883
▁편리	-11.1887
셈	-11.189
▁열두	-11.1891
▁세례	-11.1892
-17	-11.1894
▁서적	-11.1894
▁석탄	-11.1895
작업	-11.1898
▁상태이다	-11.1899
▁결혼식	-11.19
옆면	-11.1902
▁역사적으로	-11.1902
▁자유주의	-11.1902
▁환영	-11.1904
▁사료	-11.1904
▁심리학	-11.1905
▁충주	-11.1907
者	-11.1909
▁안녕하세요	-11.191
▁돌아갔다	-11.191
▁위주로	-11.1913
▁받기도	-11.1913
▁넣으	-11.1914
▁나오지	-11.1915
▁고장	-11.1916
▁작고	-11.1918
▁가능하게	-11.1918
▁보잉	-11.1918
▁최소한	-11.1918
▁하셔야	-11.192
▁대전광역시	-11.1924
▁나오는데	-11.1924
▁주스	-11.1925
▁야간	-11.1928
▁인텔	-11.1929
▁경력을	-11.193
▁친척	-11.193
▁산성	-11.1931
▁부천	-11.1932
▁두루	-11.1934
▁바이올린	-11.1934
▁간접	-11.1937
▁막대한	-11.1939
▁안드로이드	-11.1939
▁전두환	-11.1939
▁어워드	-11.1945
▁일어날	-11.1945
어족	-11.1947
▁그날	-11.1948
▁생겼다	-11.1951
▁아니며	-11.1951
▁시내버스	-11.1951
플러	-11.1952
▁하버드	-11.1955
▁대조	-11.1956
▁야기	-11.1958
자금	-11.1959
MO	-11.1964
▁아예	-11.1966
▁담당하는	-11.1966
▁긴장	-11.1967
▁주파수	-11.1967
▁트랜스	-11.197
▁this	-11.1976
▁나주	-11.1977
▁Di	-11.1984
▁교전	-11.1986
▁시상식	-11.1987
릇	-11.199
졌지만	-11.1991
▁생명체	-11.1992
▁진정한	-11.1995
BM	-11.1995
▁차남	-11.1996
시쯤	-11.1997
▁하천	-11.1998
▁주제로	-11.2001
해보고	-11.2001
▁친일인명사전	-11.2006
▁청와대	-11.2008
▁실패했다	-11.2013
▁미쓰	-11.2013
ure	-11.2016
▁know	-11.2016
▁닿	-11.202
▁도와주	-11.202
▁가까워	-11.2022
章	-11.2022
▁흡연	-11.2023
▁만났	-11.2023
▁그것도	-11.2024
SI	-11.2024
▁신비	-11.2024
▁딜	-11.2025
▁않았기	-11.2025
▁눌러	-11.2027
▁아마도	-11.2027
谷	-11.2027
▁스파이	-11.2028
▁하려면	-11.2031
▁맡게	-11.2033
▁동구	-11.2035
▁아이템	-11.2035
周	-11.2037
▁또다시	-11.2038
▁힘든	-11.2041
▁표지	-11.2041
▁부통령	-11.2042
▁명절	-11.2045
hen	-11.2047
á	-11.2047
▁CPU	-11.2047
▁측면에서	-11.2048
▁영업합니다	-11.2052
▁유언	-11.2053
▁사령부	-11.2055
흔	-11.2057
▁외곽	-11.2057
▁신축	-11.206
▁마약	-11.206
▁소재로	-11.2061
▁엑	-11.2062
▁싸게	-11.2066
▁그러자	-11.2067
▁완화	-11.2068
자본	-11.2069
무역	-11.2074
▁말하며	-11.2079
▁지방에서	-11.2079
▁원자로	-11.2081
▁건너가	-11.2084
▁풍부	-11.2085
-11	-11.2087
▁마스크	-11.209
▁부패	-11.209
▁1916	-11.209
▁두피	-11.2093
▁커뮤니티	-11.2094
▁스타크래프트	-11.2094
-6	-11.2099
벡	-11.2099
▁서경	-11.2101
▁백팩	-11.2104
▁스마트폰	-11.2105
▁가르침	-11.2107
_10	-11.2107
▁어려워	-11.211
▁기분	-11.211
▁싱글이다	-11.2114
▁드릴	-11.2117
▁이사장	-11.2117
▁스틸	-11.2117
ale	-11.2117
景	-11.212
制	-11.2121
▁재발	-11.213
▁고쳐	-11.213
▁티셔츠	-11.213
度	-11.213
잇	-11.2131
▁조명	-11.2131
작품	-11.2131
▁매달	-11.2132
▁소재지	-11.2132
觀	-11.2136
▁한동안	-11.2136
▁하원	-11.2136
tu	-11.2139
▁것만	-11.2142
▁레닌	-11.2144
▁적대	-11.2145
▁교섭	-11.2146
▁한성부	-11.2147
▁서남	-11.2148
▁상류	-11.215
左	-11.2151
친왕	-11.2155
▁게재	-11.2159
놨	-11.2162
재판소	-11.2163
▁대실	-11.2164
▁장편	-11.2168
▁국립공원	-11.2168
▁무상	-11.217
▁쌓아	-11.2172
▁질환	-11.2173
▁검증	-11.2173
▁잠시만요	-11.2174
▁되돌아	-11.2177
的	-11.2177
▁은퇴한	-11.218
▁부른	-11.218
▁출시된	-11.2181
▁실종	-11.2181
▁마쓰다이라	-11.2183
▁특수한	-11.2183
▁무효	-11.2184
▁중종	-11.2185
▁방영되었다	-11.2187
▁맞추어	-11.2187
럿	-11.2187
▁따르는	-11.2191
▁동독	-11.2193
源	-11.2193
▁실시된	-11.2194
해준다	-11.2195
▁기생	-11.2197
▁얻고	-11.22
▁제품이에요	-11.2201
form	-11.2202
▁보충	-11.2203
▁증상이	-11.2205
del	-11.2206
클린	-11.2208
柳	-11.2209
▁중순	-11.2209
▁실용	-11.221
▁멋	-11.2211
day	-11.2212
벳	-11.2214
투쟁	-11.2221
▁걸릴	-11.2224
주간	-11.2224
▁때때로	-11.2225
▁근접	-11.2226
▁4000	-11.2226
▁웰	-11.2227
▁히가시	-11.2231
▁자치구	-11.2235
▁경북	-11.2236
▁일찍이	-11.2237
▁토머스	-11.2239
lay	-11.2239
侍	-11.224
tri	-11.2243
▁연애	-11.2244
▁늦게	-11.2247
▁헐	-11.2255
▁얼마정도	-11.2256
▁마찬가지	-11.2259
총장	-11.2259
▁공세	-11.2259
▁번식	-11.226
▁심사	-11.2261
▁아나운서	-11.2261
▁죄송합니다	-11.2261
春	-11.2267
▁품질	-11.2267
▁들어가고	-11.2267
are	-11.2267
행동	-11.2268
▁밖의	-11.227
▁왔어요	-11.2271
옳	-11.2272
▁가벼운	-11.2272
터리	-11.2274
▁제외하고는	-11.2275
able	-11.228
▁모순	-11.2282
바닥	-11.2282
랫	-11.2284
▁서원	-11.2286
▁통칭	-11.2289
▁나열	-11.2292
▁얻는	-11.2295
▁나오고	-11.2298
올라	-11.2299
cu	-11.23
▁다운	-11.2301
▁화살	-11.2306
▁맡았으며	-11.2306
▁정찰	-11.2307
▁몰려	-11.2309
▁끝까지	-11.2309
놔	-11.2312
▁폭스	-11.2314
▁야생	-11.2314
ten	-11.2314
맙	-11.2314
▁원작으로	-11.2316
▁수록된	-11.2317
▁주시고	-11.2317
줄기	-11.2319
▁성공회	-11.2319
▁매출	-11.2319
낱	-11.232
쿤	-11.232
▁본인이	-11.2323
▁생각된다	-11.2323
연속	-11.2323
▁에릭	-11.2325
형태	-11.2328
▁창원	-11.2328
▁뭐라고	-11.2331
▁토대로	-11.2332
▁앨런	-11.2333
▁고분	-11.2335
▁무거운	-11.2336
▁섬유	-11.2338
宣	-11.2341
▁초창기	-11.2341
▁사이클	-11.2342
▁꺼내	-11.2343
▁로빈	-11.2345
▁목조	-11.2345
하겠다는	-11.2347
ism	-11.2348
▁정신적	-11.2349
▁돌리	-11.235
▁이전까지	-11.2351
▁호칭	-11.2352
멍	-11.2356
여단	-11.2356
▁크리스마스	-11.2357
▁부르며	-11.2358
▁살던	-11.236
넘	-11.2361
▁뽑아	-11.2365
▁우연히	-11.2368
副	-11.2368
▁강남	-11.2368
▁임명되어	-11.2368
▁소속사	-11.2373
▁퓨	-11.2374
춘추	-11.2375
있으며	-11.2377
▁질서	-11.2378
베트	-11.2379
▁바꾸어	-11.2381
▁계세요	-11.2381
▁매워요	-11.2384
▁잃은	-11.2385
밖	-11.2385
▁패딩	-11.2386
학자이다	-11.2387
▁학위	-11.2388
▁스물	-11.2389
▁베타	-11.239
▁위장	-11.2392
號	-11.2394
▁교차로	-11.2397
▁최저	-11.2397
▁셈	-11.2398
▁파운드	-11.2398
▁존중	-11.2399
▁Un	-11.2401
El	-11.2402
▁확신	-11.2403
퐁	-11.2405
▁리메이크	-11.2405
い	-11.2405
▁다른데	-11.2407
▁해주시나요	-11.2408
▁DJ	-11.2408
▁세워졌다	-11.241
▁의견이	-11.2411
▁원두	-11.2411
▁없으면	-11.2413
▁전례	-11.2413
▁않아서	-11.2414
▁와중에	-11.2414
▁파동	-11.2417
됐으며	-11.2417
EA	-11.2418
amp	-11.2422
▁특유의	-11.2422
▁무죄	-11.2423
범죄	-11.2426
▁걸릴까요	-11.2427
버린다	-11.2429
▁사용하며	-11.2429
▁시작했으며	-11.2431
▁조건으로	-11.2431
▁심각	-11.2433
▁레몬	-11.2435
▁국군	-11.2437
館	-11.2437
▁왕위를	-11.2439
AI	-11.2443
9000	-11.2443
bi	-11.2444
모델	-11.2448
▁오케스트라	-11.2459
eat	-11.2459
▁추모	-11.2461
▁패키지	-11.2465
사무소	-11.2467
▁병행	-11.2468
▁필요하세요	-11.2468
▁무슬림	-11.2469
▁있나	-11.247
▁저널	-11.2473
륵	-11.2475
▁자신에게	-11.2478
▁창건	-11.2483
▁구제	-11.2485
▁쿠르	-11.2488
▁분포한다	-11.2491
▁스파르타	-11.2491
▁춘천	-11.2494
TI	-11.2495
▁브라이언	-11.2496
▁스프링	-11.2496
▁UN	-11.2497
회장	-11.2497
젊	-11.25
▁밀양	-11.2505
▁피트	-11.2505
▁미안	-11.2508
▁상관없이	-11.2508
레이터	-11.251
▁정류장	-11.2514
▁대왕	-11.2517
▁거짓	-11.2517
짱	-11.2518
ting	-11.2518
▁싫	-11.2522
▁부흥	-11.2522
▁비공식	-11.2524
▁알려지지	-11.2526
▁왕족	-11.2528
體	-11.2529
▁넣었다	-11.253
Ne	-11.2531
▁비극	-11.2531
ley	-11.2536
▁방학	-11.2538
▁디비전	-11.254
▁알려주세요	-11.2541
造	-11.2545
▁피렌체	-11.2545
▁들어갑니다	-11.2551
▁법무	-11.2554
▁엄청	-11.2555
▁나가사키	-11.2559
野	-11.2561
▁인물들	-11.2562
▁규격	-11.2562
▁뤼	-11.2564
ning	-11.2568
▁개발된	-11.2569
듀	-11.2569
▁리버풀	-11.2573
▁지휘자	-11.2574
att	-11.2574
▁관습	-11.2575
▁평당	-11.2579
니언	-11.2579
톰	-11.258
▁점프	-11.258
▁팽창	-11.2583
스포츠	-11.2589
▁What	-11.2589
엿	-11.2589
▁뻗어	-11.2589
▁청소년들	-11.2591
▁정계	-11.2593
킨스	-11.2594
작용	-11.2598
▁강연	-11.2599
협정	-11.2599
▁입지	-11.26
▁햄버거	-11.26
▁관통	-11.2604
▁1,2	-11.2605
콧	-11.2607
사관학교	-11.2609
▁태어났	-11.2611
▁섭정	-11.2612
▁출판사	-11.2613
빔	-11.2616
▁원나라	-11.2616
▁성모	-11.2617
PC	-11.2618
Jo	-11.2618
다른	-11.2621
•	-11.2621
▁규정하고	-11.2623
▁시간당	-11.2625
花	-11.2627
퍼스	-11.2628
▁끌려	-11.263
▁일회용	-11.2631
하네요	-11.2632
節	-11.2633
▁풋볼	-11.2638
▁해드려요	-11.2638
▁측근	-11.2639
ren	-11.2641
▁취약	-11.2643
▁유교	-11.2643
▁중추원	-11.2644
HO	-11.2647
▁충족	-11.2648
▁취미	-11.2648
▁휴대	-11.2652
▁정해진	-11.2653
ult	-11.2654
▁러브	-11.2654
▁화제가	-11.2654
▁주지사	-11.2657
▁융합	-11.2657
루아	-11.2658
관찰사	-11.2663
▁계란	-11.2664
▁복제	-11.2664
▁시작된다	-11.2664
▁나섰다	-11.2665
▁응답	-11.2668
▁배신	-11.2668
典	-11.2671
治	-11.2671
OP	-11.2671
app	-11.2674
▁내외	-11.2677
섯	-11.2681
콰	-11.2682
방울	-11.2685
▁진출하였다	-11.2686
▁때로는	-11.269
▁리투아니아	-11.2693
▁연고로	-11.2695
▁괜찮습니다	-11.2697
▁좌표	-11.2699
▁매력	-11.27
▁세자	-11.2702
쭉	-11.2704
▁공채	-11.2705
ini	-11.2706
▁침몰	-11.2706
▁궁정	-11.2707
▁팔리	-11.2707
▁무신	-11.2713
▁프로토콜	-11.2715
▁파란색	-11.2715
▁깎아	-11.2715
▁맡았	-11.2718
▁대폭	-11.272
с	-11.272
▁항공모함	-11.2721
▁트윈	-11.2722
▁자기장	-11.2722
▁사거리	-11.2723
▁놀라	-11.2724
올리	-11.2727
▁민감	-11.2728
▁마찰	-11.2728
▁암호	-11.2728
▁제작되었다	-11.2729
▁일족	-11.2729
언어	-11.2731
니까요	-11.2732
▁윙	-11.2733
버렸	-11.2735
▁시점에서	-11.2737
▁필라델피아	-11.2737
▁대안	-11.2737
▁베이스볼	-11.2739
▁종결	-11.274
ild	-11.2744
▁105	-11.2747
ose	-11.2747
▁실버	-11.2747
▁골프	-11.2748
▁대출	-11.2749
▁블라	-11.275
▁※	-11.2753
▁주립	-11.2753
▁설립하였다	-11.2758
줬다	-11.2759
眞	-11.2759
▁체크	-11.2762
▁살짝	-11.2762
▁진군	-11.2763
▁조문이다	-11.2766
▁이루었다	-11.2769
▁개최되었다	-11.2771
▁이슬람교	-11.2771
▁촉구	-11.2771
▁효력	-11.2772
덱	-11.2781
▁부작용	-11.2783
▁마그	-11.2785
▁드셔	-11.2785
▁살펴	-11.2787
대한민국	-11.2788
▁초상화	-11.2788
▁은메달을	-11.2789
ros	-11.279
▁악마	-11.2795
버려	-11.2798
▁폐위	-11.2799
▁내려오	-11.28
리언	-11.28
▁병역	-11.2803
美	-11.2804
▁서브	-11.2804
통합	-11.2806
▁칠천	-11.2807
▁어쩌	-11.281
▁우측	-11.2811
▁알아요	-11.2811
▁바라보	-11.2811
▁않겠	-11.2811
▁받침	-11.2812
▁파나요	-11.2816
▁비상구	-11.282
▁Go	-11.2823
▁환상	-11.2828
▁별칭	-11.2831
村	-11.2832
▁정밀	-11.2833
▁줄여서	-11.2834
▁출전했다	-11.2834
▁박탈	-11.2839
▁베일리	-11.2841
▁동메달을	-11.2842
▁초점을	-11.2843
ö	-11.2843
▁생각한다	-11.2845
▁코리아	-11.2846
▁요원	-11.2847
q	-11.2848
▁창업	-11.2852
▁쓰레기	-11.2855
▁들어올	-11.2857
▁기습	-11.2858
▁통신사	-11.286
▁개관	-11.286
형제	-11.2861
민주주의	-11.2861
▁토르	-11.2862
▁들어간다	-11.2864
▁금메달	-11.2866
▁by	-11.2868
▁소행성	-11.2868
▁쫓겨	-11.2871
▁World	-11.2871
▁발전소	-11.2872
▁마이너	-11.2872
▁않으	-11.2872
▁예능	-11.2874
▁바뀐	-11.2877
▁상당수	-11.2879
▁레이저	-11.2886
슬러	-11.2886
"("	-11.2887
▁영문	-11.2887
▁그렇지만	-11.2887
▁포유류	-11.2888
분석	-11.2888
lf	-11.2889
▁중학교이다	-11.2891
▁협약	-11.2893
▁에스토니아	-11.2893
▁지지하는	-11.2897
英	-11.2899
▁불가능하다	-11.2899
▁특이한	-11.2903
別	-11.2905
▁지각	-11.2909
▁지냈으며	-11.2909
康	-11.291
▁사용하면	-11.2911
▁도호쿠	-11.2916
▁면역	-11.2916
▁아니었	-11.2917
▁코치로	-11.2918
▁빌헬름	-11.2921
▁블랙홀	-11.2923
EX	-11.2925
▁스테이크	-11.2927
▁성공적인	-11.293
▁차이점	-11.2931
▁연주자	-11.2933
▁비례	-11.2933
He	-11.2937
▁전날	-11.2938
▁FM	-11.2943
▁케이스	-11.2947
▁음원	-11.2949
▁베네수엘라	-11.295
red	-11.2951
볶음	-11.2952
줘야	-11.2952
▁캐스팅	-11.2955
貞	-11.2955
ope	-11.2955
수단	-11.2957
▁여단	-11.2958
▁충실	-11.2958
福	-11.2961
▁과목	-11.2962
▁멤버십	-11.2964
겠지만	-11.2965
▁자율	-11.2966
▁받아야	-11.2968
제작	-11.2969
샘	-11.297
▁영감을	-11.2973
콜라	-11.2977
윙	-11.2982
▁온천	-11.2982
▁사헌부	-11.2984
▁관광지	-11.2984
▁기타리스트	-11.2986
▁기상청	-11.2989
▁둘러싼	-11.2989
萬	-11.299
▁푸른	-11.2991
▁밟	-11.2992
令	-11.2995
▁밀어	-11.2996
▁갈비	-11.3002
보시겠어요	-11.3003
▁가시나요	-11.3003
▁군데	-11.3003
▁옵션	-11.3006
▁안됩니다	-11.3007
▁줄여	-11.3009
▁마이크	-11.301
▁날씨	-11.3013
▁채워	-11.3016
▁해주실	-11.3018
▁밴	-11.3023
불교	-11.3023
렸는데	-11.3024
▁태생	-11.3025
▁유출	-11.3027
▁서식한다	-11.3027
함대	-11.3028
펄	-11.3028
▁민족문제연구소	-11.3029
▁붙인	-11.3032
国	-11.3035
사령관	-11.304
운영	-11.3041
▁협조	-11.3043
▁숨겨	-11.3044
평군	-11.3046
▁불안정	-11.3046
종교	-11.3046
▁후지와라	-11.3048
▁제조업	-11.3051
▁인정받아	-11.3053
▁출토	-11.3056
▁연호	-11.306
▁선언했다	-11.3061
▁냉장고	-11.3061
▁아베	-11.3062
▁평행	-11.3065
▁2020	-11.3066
▁언제부터	-11.3066
▁기종	-11.3066
▁만나게	-11.3069
開	-11.3069
▁군부	-11.307
▁따위	-11.3072
ü	-11.3075
▁우루과이	-11.3075
▁체인점	-11.3076
▁레논	-11.3076
▁이루어졌	-11.3076
▁만두	-11.3077
▁누르고	-11.3077
▁토착	-11.3079
뤘	-11.3081
▁반박	-11.3081
▁인력	-11.3081
▁발매했다	-11.3082
▁배웠다	-11.3085
▁컨트롤	-11.3086
▁저작권	-11.3086
▁그만두	-11.3088
적이지	-11.309
▁갓	-11.309
▁작위를	-11.309
▁낱말	-11.3092
▁합작	-11.3093
못	-11.3095
▁둘레	-11.3095
엠	-11.3098
▁보스니아	-11.3098
뻔	-11.3103
▁시나리오	-11.3104
▁통증	-11.3107
▁스페인어	-11.3107
▁유소년	-11.3107
▁둥근	-11.3109
思	-11.3115
▁다운로드	-11.3115
▁유니폼	-11.3116
▁들려	-11.3117
스럽게	-11.3117
▁행정부	-11.3118
科	-11.3121
▁검정	-11.3121
▁도덕	-11.3126
pri	-11.3127
▁급진	-11.3127
▁인물이다	-11.3128
▁부르고	-11.3133
▁하나씩	-11.3133
▁일억	-11.3136
▁무제	-11.3136
宋	-11.3138
▁본질	-11.3142
▁순대	-11.3143
숨	-11.3145
▁Or	-11.3148
▁묘지	-11.3149
傳	-11.3155
GB	-11.3158
봇	-11.316
▁자유당	-11.3162
나갔다	-11.3163
▁분명히	-11.3164
▁정부로부터	-11.3164
af	-11.3172
ze	-11.3173
▁주축	-11.3177
▁좋을까요	-11.318
▁전자기	-11.318
▁광주광역시	-11.3184
▁전함	-11.3185
▁해변	-11.319
▁우승하였다	-11.3191
▁별다른	-11.3192
▁느낀	-11.3196
띠	-11.3198
▁채무	-11.3198
재판	-11.3198
▁경선	-11.3199
▁외교관	-11.32
▁만났다	-11.32
▁적합한	-11.3201
▁저택	-11.3208
▁붓	-11.321
▁스피드	-11.3212
▁고고학	-11.3216
▁곡물	-11.3216
라디오	-11.3217
▁적절	-11.3217
▁살아있	-11.3223
▁범인	-11.3228
▁결혼했다	-11.323
끔	-11.3232
▁약국	-11.3235
초밥	-11.3235
▁섭취	-11.3237
반응	-11.3238
▁황해도	-11.3239
▁도움으로	-11.3239
부작	-11.324
▁교황청	-11.3241
▁월간	-11.3245
▁맡았고	-11.3245
받는다	-11.3247
▁소환	-11.3249
▁괜찮을까요	-11.3254
▁일으켰	-11.3255
▁분배	-11.3255
▁발견되는	-11.3256
▁로고	-11.3256
▁주문할게요	-11.3258
▁버크	-11.3258
▁조류	-11.3259
▁막내	-11.3259
▁탈환	-11.3261
▁실려	-11.3262
▁50%	-11.3264
▁장안	-11.3264
根	-11.3266
▁금성	-11.3269
▁휴식	-11.3272
▁한나라	-11.3275
▁하시겠어요	-11.328
틀리	-11.3282
▁당원	-11.3284
태수	-11.3285
렵	-11.3286
▁같네요	-11.3286
▁노동자들	-11.3289
▁중성자	-11.3294
▁국무총리	-11.3295
DI	-11.3295
▁민속	-11.3296
▁줄이는	-11.3296
大夫	-11.3301
▁북동부	-11.3301
`	-11.3307
CH	-11.3307
현상	-11.3309
▁술탄	-11.3311
▁출산	-11.3312
▁SM	-11.3312
▁사망자	-11.3312
▁르네상스	-11.3312
▁쓰이고	-11.3314
▁소유하고	-11.3319
iver	-11.3319
십시오	-11.3319
시키지	-11.3321
▁무려	-11.3321
奉	-11.3324
▁전라도	-11.3333
▁인정하지	-11.3336
▁유튜브	-11.3336
濟	-11.3336
▁교외	-11.3337
▁차가운	-11.3337
▁선종	-11.3337
▁릴리	-11.3341
▁활발한	-11.3342
GM	-11.3343
▁1.5	-11.3344
▁매콤	-11.3347
▁변동	-11.3348
▁역까지	-11.3353
딪	-11.3354
브르	-11.3356
▁되시나요	-11.3358
태평양	-11.3358
▁관람	-11.336
▁1894	-11.336
▁요크	-11.3361
MD	-11.3361
▁단품	-11.3362
용품	-11.3363
▁피에르	-11.3364
▁입장에서	-11.3365
寶	-11.3365
팜	-11.3365
▁꿀	-11.3366
▁스핀	-11.3369
IG	-11.3371
tal	-11.3374
푸르	-11.3376
в	-11.3377
星	-11.3377
利	-11.3377
ough	-11.3378
▁이에야스	-11.3378
▁자연스럽게	-11.3378
▁오키나와	-11.3383
▁미나미	-11.3384
▁북서부	-11.3384
▁등지에서	-11.3385
▁에이스	-11.3386
FA	-11.3387
▁없음	-11.3387
▁의뢰	-11.3388
▁추천해주세요	-11.3388
ki	-11.3388
外	-11.3395
▁이적했다	-11.3396
▁참여하여	-11.3398
▁나갑니다	-11.3401
▁봉투	-11.3403
▁역설	-11.3403
▁Is	-11.3406
▁것입니다	-11.3407
치료	-11.3407
▁치러진	-11.3408
▁분데스리가	-11.341
니즘	-11.3412
훔	-11.3413
▁형법	-11.3413
▁후불	-11.3414
ple	-11.3415
▁취재	-11.3415
▁좌측	-11.3417
▁부착	-11.3418
▁패밀리	-11.3419
▁미용실	-11.3419
▁수수료	-11.3419
되었습니다	-11.3421
▁조국	-11.3423
EN	-11.3424
▁바른	-11.3428
▁마쳤다	-11.3428
했죠	-11.3429
▁초연	-11.3429
▁분류된다	-11.343
▁듯한	-11.3431
▁초등학생	-11.3436
▁나한테	-11.3441
Korea	-11.3442
▁있던데	-11.3444
par	-11.3447
했는지	-11.3449
▁북방	-11.3449
▁먹어야	-11.3461
over	-11.3466
▁동남아시아	-11.3472
▁과학자들	-11.3472
프스키	-11.3474
▁안내해	-11.3476
▁않았으나	-11.3477
▁근교	-11.348
▁가져와	-11.3482
▁복용	-11.3484
▁십자가	-11.3488
▁징계	-11.3488
▁매사추세츠	-11.349
▁사단법인이다	-11.349
▁교장	-11.349
▁매개	-11.3495
▁얼만데요	-11.3496
▁스크린	-11.3496
▁보좌	-11.3496
▁문양	-11.3498
▁몰래	-11.3498
▁청바지	-11.35
air	-11.3506
low	-11.3512
▁좌절	-11.3513
▁던져	-11.3515
將	-11.3515
▁대처	-11.3516
▁받았으나	-11.3517
▁갤럭시	-11.352
▁싱어송라이터	-11.352
▁DC	-11.3523
핍	-11.3526
御	-11.3532
▁법령	-11.3532
▁발생할	-11.3535
캠퍼스	-11.3539
갤	-11.3544
▁있으면서	-11.3544
춤	-11.3544
▁설비	-11.3546
▁대외	-11.3546
▁다이어	-11.3547
▁거주하는	-11.3549
▁취지	-11.3549
▁페스티벌	-11.355
修	-11.355
▁사용될	-11.3556
싶	-11.3557
▁중심기압	-11.3562
케르	-11.3563
▁숨어	-11.3563
▁테니스	-11.3567
▁구릉	-11.357
▁마침	-11.3572
壽	-11.3574
▁방패	-11.3577
▁번영	-11.3578
히코	-11.3578
臺	-11.358
▁일반화	-11.358
將軍	-11.358
▁대표작	-11.3581
신가요	-11.3582
▁립스틱	-11.3586
쿠니	-11.359
▁함유	-11.3591
▁에티오피아	-11.3592
틱스	-11.3594
▁발현	-11.3595
▁득표	-11.3596
л	-11.3598
▁독서실	-11.3598
▁가난한	-11.3599
▁지폐	-11.3602
▁상징하는	-11.3604
DE	-11.3606
폭력	-11.3606
~5	-11.3608
▁실시간	-11.3608
▁소닉	-11.3609
中學校	-11.361
▁있으니	-11.3611
▁즈음	-11.3613
▁치세	-11.3614
▁청원	-11.3614
▁플레이스테이션	-11.3616
▁나타낼	-11.3616
憲	-11.3616
협력	-11.3617
~6	-11.3618
▁좋고	-11.3618
▁비밀번호	-11.3623
▁NBA	-11.3625
▁식민	-11.3628
▁콘스탄티노폴리스	-11.3628
▁하인리히	-11.3628
▁설립했다	-11.3629
시켜야	-11.3631
▁없네요	-11.3633
▁일어나자	-11.3634
▁성명	-11.3634
▁말하면	-11.3639
▁나눌	-11.3641
▁편하게	-11.3641
lin	-11.3641
▁인형	-11.3642
『	-11.3644
PL	-11.3644
캉	-11.3646
▁예약했는데	-11.3647
므	-11.3647
▁마음작용	-11.3647
▁예배	-11.3648
▁몰랐	-11.3649
▁곳곳에	-11.365
계급	-11.3651
▁시절부터	-11.3654
▁달아요	-11.3658
▁쌍둥이	-11.3658
▁오디오	-11.3659
▁탈당	-11.3664
▁신흥	-11.3664
▁찾았	-11.3665
▁추출	-11.3667
▁상관없	-11.367
LS	-11.3671
▁1890	-11.3671
ok	-11.3674
▁울리	-11.3675
받지	-11.3676
▁베니	-11.3676
▁송시열	-11.3677
▁첼시	-11.3679
式	-11.3683
▁그려진	-11.3683
▁파업	-11.3685
▁잃었다	-11.3685
공장	-11.3686
▁간식	-11.3686
▁라우	-11.369
▁마케팅	-11.3695
▁드라이브	-11.3699
▁배터리	-11.37
▁방침	-11.37
▁지혜	-11.3705
▁둘러싸고	-11.3707
▁평정	-11.3712
관광	-11.3712
▁관현악	-11.3713
Sh	-11.3717
▁상업적	-11.3717
親	-11.3719
▁보여주었다	-11.3722
$	-11.3725
냅	-11.3725
▁닛폰	-11.3725
▁지정된	-11.3729
▁결코	-11.3731
▁전압	-11.3732
▁계약금	-11.3733
▁용병	-11.3734
▁캠페인	-11.3738
▁텍스트	-11.3738
應	-11.3744
▁새겨져	-11.3745
업무	-11.3749
塔	-11.375
▁나와서	-11.3751
▁휴전	-11.3751
▁라마	-11.3752
SU	-11.3753
▁에스파냐	-11.3756
▁옥수수	-11.3756
▁응원	-11.3756
둠	-11.3758
▁송나라	-11.376
려구요	-11.3761
▁황태자	-11.3763
row	-11.3765
▁다르지만	-11.3772
▁탐지	-11.3775
실험	-11.3781
▁중의원	-11.3784
▁주시는	-11.3785
▁곤란	-11.3785
▁표명	-11.3786
됨으로써	-11.3788
org	-11.3789
▁프로리그	-11.3791
▁김태	-11.3792
▁테일러	-11.3793
▁통근	-11.3796
▁현종	-11.3797
▁인재	-11.3797
▁라트비아	-11.3799
▁블루베리	-11.38
智	-11.3805
▁난민	-11.3806
▁사육	-11.3807
ler	-11.3808
▁친일파	-11.3809
▁단점	-11.3811
▁귀중한	-11.3812
▁다스리	-11.3814
▁맺어	-11.3816
Christ	-11.3818
▁총독부	-11.3818
▁전념	-11.3822
▁포격	-11.3822
텀	-11.3824
프로그램	-11.3825
밴드	-11.3826
▁아닐	-11.3827
說	-11.383
▁과학자	-11.3831
▁에버	-11.3832
▁직책	-11.3832
▁영남	-11.3836
결합	-11.3839
▁격퇴	-11.384
▁로베르	-11.384
▁슬로바키아	-11.3842
▁작센	-11.3842
▁집계	-11.3845
▁빌려	-11.3848
阿	-11.3848
▁신규	-11.3848
▁쓰였다	-11.385
▁부정적인	-11.385
▁자세한	-11.3851
▁유치원	-11.3851
▁배치되어	-11.3854
▁디스플레이	-11.3861
▁다양하게	-11.3862
▁녹차	-11.387
분정도	-11.3872
т	-11.3873
▁투명	-11.3874
▁바오로	-11.3875
▁편입되었다	-11.3876
▁항소	-11.3876
▁극히	-11.3879
▁메러디스	-11.3879
▁캠핑	-11.3879
▁횟수	-11.388
▁알렉스	-11.388
FM	-11.3882
命	-11.3886
▁정체성	-11.3887
▁요코	-11.3888
▁리비아	-11.3889
▁홍수	-11.3891
▁급격히	-11.3892
▁지나치게	-11.3892
▁라이선스	-11.3892
▁깨닫	-11.3892
려는데	-11.3892
▁가짜	-11.3893
▁총괄	-11.3896
괘	-11.3898
▁허리케인	-11.3898
산맥	-11.3903
찔	-11.3904
▁가르쳐	-11.3907
▁재활	-11.3909
▁IBM	-11.3913
▁사라진	-11.3914
▁모니터	-11.3917
▁종로구	-11.3925
▁위임	-11.3926
International	-11.3929
▁사려고	-11.3933
▁얻는다	-11.3934
音	-11.3935
▁시칠리아	-11.3935
▁폭풍	-11.3939
▁택시	-11.394
▁마르크스	-11.3941
▁향후	-11.3941
▁당구장	-11.3942
▁재편	-11.3943
▁떠났	-11.3943
▁후보자	-11.3945
▁백성	-11.3953
▁북구	-11.3956
▁찾아볼	-11.3958
▁등번호	-11.396
▁퍼시픽	-11.3967
▁커플	-11.3968
▁실망	-11.397
▁견제	-11.3971
▁미얀마	-11.3973
옐	-11.3973
순양함	-11.3979
▁일제강점기	-11.3979
▁밝힌	-11.398
▁윤치호	-11.3986
▁무조건	-11.3986
▁진행된다	-11.3989
▁아이슬란드	-11.3992
▁담겨	-11.3992
▁지어졌다	-11.3996
▁에디	-11.3997
헌법	-11.3998
▁후손들	-11.3999
있지	-11.4001
vo	-11.4004
▁두께	-11.4004
▁아직까지	-11.4009
▁맡겨	-11.4009
갔으며	-11.4013
▁아벨	-11.4015
▁카이사르	-11.4017
▁민영	-11.4017
▁1902	-11.4017
▁홈경기	-11.4019
RS	-11.402
ン	-11.4023
빌리	-11.4027
▁컴파일	-11.4029
▁알렸다	-11.403
▁허위	-11.403
▁미안해	-11.4032
▁명령어	-11.4033
▁나아요	-11.4036
▁사쿠라	-11.4037
▁열쇠	-11.4042
作	-11.4042
_11	-11.4042
▁객체	-11.4044
시키며	-11.4046
▁들어가나요	-11.4046
▁백색	-11.4047
▁우라늄	-11.4048
▁감기약	-11.4048
▁많아서	-11.405
tory	-11.4052
▁1898	-11.4054
▁앉으세요	-11.4055
▁수렴	-11.4057
▁할인되나요	-11.4064
여객	-11.4069
▁세일해서	-11.407
▁공의회	-11.407
▁본질적	-11.4071
ail	-11.4073
▁백설기	-11.4074
к	-11.408
▁굵은	-11.4081
▁풍경	-11.4082
▁비회원	-11.4083
▁대의원	-11.4083
▁머릿결	-11.4086
▁보완	-11.409
by	-11.409
BO	-11.409
▁몬트리올	-11.4093
▁아무래도	-11.4093
▁임용	-11.4096
▁드럼	-11.4096
▁핸드	-11.4099
▁밝혔	-11.4099
▁노동당	-11.4101
▁로저	-11.4106
▁양측	-11.4107
other	-11.4109
▁숭배	-11.4111
렸으나	-11.4112
▁멀어	-11.4112
▁전성기	-11.4112
▁키우	-11.4113
“	-11.4117
▁실질적인	-11.4118
▁히라	-11.4123
CI	-11.4123
▁의자	-11.4124
▁what	-11.4124
歌	-11.4124
▁해병대	-11.4125
식품	-11.4129
▁제외하면	-11.4131
LE	-11.4132
▁삼촌	-11.4134
▁없었기	-11.4135
語	-11.4137
良	-11.4137
▁처음부터	-11.4139
▁그러던	-11.4141
▁칭찬	-11.4142
▁거느리고	-11.4143
▁1899	-11.4145
▁드림	-11.4147
외국어	-11.4149
▁기여했다	-11.4151
▁유료	-11.4152
▁CJ	-11.4156
씌	-11.4156
▁마카롱	-11.4156
셨나요	-11.4157
▁1800	-11.4162
泰	-11.4163
▁일시적으로	-11.4165
▁파트	-11.4165
▁북위	-11.4165
▁승점	-11.4168
쯔	-11.4169
▁리버	-11.4173
집행	-11.4182
맑	-11.4182
▁유네스코	-11.4182
▁위쪽	-11.4183
토크	-11.4186
▁치안	-11.4187
붐	-11.4188
▁남서부	-11.419
지휘	-11.4192
KBS	-11.4195
▁협박	-11.4198
볶	-11.4198
IM	-11.42
십니다	-11.4201
實	-11.4201
▁더이상	-11.4203
fer	-11.4206
▁부분적으로	-11.4207
空	-11.4207
도르프	-11.4211
▁창원시	-11.4214
▁배틀	-11.422
Com	-11.422
界	-11.422
더라고요	-11.4221
▁팔찌	-11.4221
소송	-11.4221
▁속성	-11.4225
센티	-11.4226
▁암석	-11.4233
쌀	-11.4234
▁데뷔하였고	-11.4234
▁담긴	-11.4236
핏	-11.4239
弘	-11.4239
물리학	-11.4241
▁카운티	-11.4246
▁물티슈	-11.4252
動	-11.4252
log	-11.4252
▁한국전쟁	-11.4258
늙	-11.4259
▁묶어	-11.4261
▁복장	-11.4262
▁울산광역시	-11.4265
▁홈구장	-11.4272
▁총선거	-11.4273
保	-11.4278
▁죽였다	-11.4279
▁어울릴	-11.4285
省	-11.4285
▁노부나가	-11.4285
▁보편적	-11.4285
▁밝기	-11.4287
色	-11.4291
▁머무르	-11.4298
▁간단히	-11.4298
▁스트레스	-11.4301
▁물어보	-11.4301
▁상태였다	-11.4303
▁좋았	-11.4303
몫	-11.4304
右	-11.4304
▁억압	-11.4304
냉	-11.4306
기독교	-11.4306
UN	-11.4307
웃	-11.4307
▁실린	-11.4308
▁세균	-11.4308
ling	-11.431
꽂	-11.431
▁낙선	-11.4311
ek	-11.4313
▁드문	-11.4315
▁인격	-11.4318
▁퇴실	-11.432
▁걸립니다	-11.4323
IR	-11.4326
셨죠	-11.4327
▁배후	-11.4328
唐	-11.433
▁튀김	-11.4332
▁사라졌다	-11.4335
來	-11.4336
▁끝날	-11.4339
▁학파	-11.4341
십니까	-11.4341
▁물려받	-11.4343
따라	-11.4343
http	-11.4343
러시아	-11.4346
▁곡들	-11.4346
스페이스	-11.4348
▁로열	-11.4349
ise	-11.435
치킨	-11.4353
▁소총	-11.4356
▁University	-11.4356
주시고	-11.4368
AF	-11.4371
vel	-11.4373
▁겪었다	-11.4375
▁연결된	-11.4375
▁셔츠	-11.4376
▁염색약	-11.4378
▁동래	-11.438
썬	-11.4382
▁자리잡고	-11.4382
▁분이세요	-11.4385
주식회사	-11.4385
▁빨간	-11.4386
▁고려대학교	-11.4394
▁힘입어	-11.4395
▁펼쳤다	-11.4399
▁라이브러리	-11.4402
▁도메인	-11.4402
▁써요	-11.4407
뭇	-11.4408
▁선보였다	-11.4411
詩	-11.4415
▁채소	-11.4416
▁넘어서	-11.4419
참모	-11.4422
▁승계	-11.4427
nowiki	-11.4428
老	-11.4428
▁개막전	-11.4431
▁센서	-11.4431
玉	-11.4434
路	-11.4434
▁깔끔	-11.4435
▁추정되는	-11.4438
▁보이는데	-11.4438
▁의상	-11.444
륭	-11.4441
▁실질적으로	-11.4441
▁계열사	-11.4441
等	-11.4442
▁위탁	-11.4449
▁프랭크	-11.4454
▁소유권	-11.4455
▁오리콘	-11.4456
▁시호를	-11.4457
▁사우디아라비아	-11.4461
꿈	-11.4465
평의회	-11.4469
▁경상도	-11.4469
▁블루스	-11.4471
▁설화	-11.4473
▁존속	-11.4475
▁1901	-11.4477
后	-11.448
▁ISO	-11.4481
명이요	-11.4482
▁머리카락	-11.4487
▁무승부	-11.4488
▁양키스	-11.4489
▁최악의	-11.4494
▁괴물	-11.4496
▁아랍어	-11.4497
▁관념	-11.4499
▁벌금	-11.4499
▁어쩔	-11.4501
▁식별	-11.4502
▁탐사선	-11.4504
▁체포되어	-11.4506
▁이순신	-11.4508
▁몬테	-11.4513
▁넉넉	-11.4513
賢	-11.4513
▁통일신라	-11.4513
▁호평을	-11.4515
▁냉각	-11.4524
▁동료들	-11.4526
▁화요일	-11.4527
://	-11.4533
▁태양계	-11.4536
연합회	-11.4537
겠습니까	-11.4545
칼리	-11.4545
位	-11.4547
▁축구단	-11.4548
씻	-11.4553
슛	-11.4553
錄	-11.4553
▁석조	-11.4555
▁투옥	-11.4558
▁기점으로	-11.4563
학자들	-11.4564
▁문화방송	-11.4565
▁마리오	-11.4573
▁맞으시죠	-11.4573
▁바꾼	-11.4577
▁중단되었다	-11.4579
쟈	-11.458
케라톱스	-11.458
▁시작하였고	-11.458
▁수용소	-11.4581
Th	-11.4584
▁해주실래요	-11.4584
▁성숙	-11.4586
參	-11.4586
▁연예인	-11.4588
멤	-11.4593
▁캄보디아	-11.4593
▁펜실베이니아	-11.4593
밋	-11.4593
RC	-11.4595
디언	-11.46
▁테이크	-11.46
▁지속적인	-11.4601
▁존재하며	-11.4604
쉴	-11.4606
▁스케이팅	-11.4613
▁휴대폰	-11.4614
윗	-11.4614
하임	-11.4617
홉	-11.4624
임에도	-11.4626
lit	-11.4627
▁어휘	-11.4627
▁그다지	-11.4629
그리스	-11.463
king	-11.463
MHz	-11.4633
채널	-11.4634
▁회계	-11.4635
▁불리게	-11.4637
▁대도시	-11.4644
▁새누리당	-11.4646
形	-11.4646
▁원산지	-11.4654
겠네	-11.4657
▁선수이자	-11.4658
▁과제	-11.4658
냄	-11.466
▁광범위한	-11.466
碑	-11.466
▁완벽한	-11.466
▁들어있는	-11.466
▁에미	-11.4663
▁육체	-11.4673
進	-11.4673
▁손잡이	-11.4674
▁아사히	-11.4675
앰	-11.468
敬	-11.468
▁진급	-11.4681
▁가져온	-11.4682
▁디럭스	-11.4687
▁얻지	-11.4693
▁동아일보	-11.4694
▁장거리	-11.4696
▁궁금	-11.4698
▁적당한	-11.4698
族	-11.47
▁브라우저	-11.47
ky	-11.4702
뛰	-11.4702
▁차종	-11.4703
미사일	-11.4709
▁윌슨	-11.4712
▁야구장	-11.4713
▁팔레스타인	-11.4714
▁꼭대기	-11.4714
▁유죄	-11.4717
▁중앙위원회	-11.4717
▁마르코	-11.4717
▁치른	-11.4717
FL	-11.4719
ο	-11.472
工	-11.472
▁1903	-11.4721
▁리필	-11.4724
쁜	-11.4725
▁밀접한	-11.4727
▁쏟아	-11.4727
▁블로그	-11.4727
▁종래	-11.4731
▁처녀	-11.4733
▁포켓몬	-11.4734
▁끝나면	-11.4734
▁사이버	-11.4735
▁비로소	-11.4737
土	-11.4741
▁플라스틱	-11.4741
▁넓게	-11.4744
연료	-11.4745
▁문화체육관광부	-11.4747
층석탑	-11.4747
▁드려야	-11.4748
▁혈통	-11.4749
돕	-11.4753
戰	-11.4754
▁오하이오	-11.4761
▁앙리	-11.4765
▁윌리엄스	-11.4768
▁문과에	-11.4768
0.5	-11.4774
렸어요	-11.4775
▁먼지	-11.4783
▁연합국	-11.4786
IL	-11.4792
ode	-11.4796
▁것인데	-11.4796
멀	-11.4799
功臣	-11.4802
▁올스타	-11.4803
▁자켓	-11.4806
▁링컨	-11.4809
▁정해져	-11.4814
▁크리스티나	-11.4815
▁진행되고	-11.4816
▁죽여	-11.4818
떠	-11.4819
▁올스타전	-11.4822
▁봉안	-11.4825
▁인접한	-11.4828
津	-11.4829
펌	-11.4833
▁워터	-11.4835
uch	-11.4844
▁성리학	-11.4844
▁희귀	-11.4846
▁답변	-11.4856
吳	-11.4856
▁카페라떼	-11.4857
▁가격대가	-11.4863
▁다양하다	-11.4863
▁평택	-11.4868
▁미군정	-11.4868
▁핸드폰	-11.4871
▁둥지	-11.4874
FI	-11.4879
▁급제하여	-11.488
AE	-11.4881
▁도움	-11.4882
▁삼성전자	-11.4885
왔으나	-11.4888
▁부탁드릴게요	-11.4893
▁예쁜	-11.4894
▁목요일	-11.4895
▁재혼	-11.4896
▁바티칸	-11.4897
▁트위터	-11.4897
▁콘스탄	-11.4898
▁브레이크	-11.4899
▁싶지	-11.4902
▁이어진다	-11.4912
▁잡혀	-11.4913
▁섹스	-11.4921
▁스쿨	-11.4922
돔	-11.4924
▁가능하십니다	-11.4925
▁부드러운	-11.4925
▁뭐죠	-11.4927
▁직결	-11.4929
▁소유자	-11.493
▁커플석	-11.4934
▁않으나	-11.4937
▁즉각	-11.4941
▁영의정	-11.4942
▁아랫	-11.4944
▁체코슬로바키아	-11.4946
▁초콜릿	-11.4946
▁취항	-11.4947
▁다룬다	-11.4949
ius	-11.4953
ink	-11.4954
▁2.0	-11.4955
▁계몽	-11.4957
▁커널	-11.4959
▁지리적	-11.4959
藤	-11.4966
▁주어진다	-11.4967
텍스	-11.4968
▁책임자	-11.4969
▁이르렀	-11.4973
▁구축함	-11.4975
▁후쿠시마	-11.4981
▁좋겠어요	-11.4984
▁조선일보	-11.4986
▁축출	-11.4993
▁승부차기	-11.4994
▁싸워	-11.4994
▁로그	-11.4996
판매	-11.5003
▁승격되었다	-11.5007
井	-11.5008
work	-11.5016
▁장례	-11.5028
▁평범한	-11.5029
▁머신	-11.503
▁공습	-11.5031
▁컨셉	-11.5036
▁맞춰서	-11.5042
▁포지션	-11.5043
땡	-11.5043
▁마천루	-11.5043
▁왜곡	-11.5045
앗	-11.5048
藏	-11.505
▁물러났다	-11.505
▁뉴턴	-11.5056
▁총애	-11.5056
▁나이지리아	-11.5057
如	-11.5057
▁듣는	-11.5059
EL	-11.5063
▁오프닝	-11.5064
▁아열대	-11.5064
▁돌격	-11.5064
▁너비	-11.5066
하늘	-11.5066
wer	-11.5066
▁선크림	-11.5071
申	-11.5078
▁수요일	-11.5078
소득	-11.5083
▁하얀	-11.5084
▁영업해요	-11.5085
▁괴롭	-11.5091
▁가마쿠라	-11.5092
▁나눈	-11.5092
▁기갑	-11.5097
▁긍정적인	-11.5102
▁배달료	-11.5102
▁바깥쪽	-11.5104
싹	-11.5106
▁원하세요	-11.5109
校	-11.5119
ash	-11.5121
▁추측된다	-11.5126
hr	-11.5131
▁콘크리트	-11.5134
▁왼손	-11.5134
▁좋으	-11.514
▁가깝다	-11.5141
七	-11.5141
비빔밥	-11.5141
▁준결승전	-11.5145
▁법무부	-11.5145
▁조선로동당	-11.5148
▁메트로	-11.515
▁바뀌어	-11.5158
ja	-11.5158
▁픽업	-11.5162
▁국거리	-11.5163
▁세이부	-11.5167
▁싶었	-11.5168
곶	-11.5176
▁협주곡	-11.5176
▁don	-11.5178
▁다이아몬드	-11.5183
아우구스	-11.5186
▁강남구	-11.5187
▁야마토	-11.5188
梁	-11.519
▁운하	-11.5191
▁얼룩	-11.5192
▁연꽃	-11.5204
溪	-11.5204
▁1897	-11.5212
▁증손	-11.5217
▁뿌려	-11.5219
▁동력	-11.5222
▁신념	-11.5225
ino	-11.5225
言	-11.5226
▁돕는	-11.5231
▁장례식	-11.5233
▁저런	-11.5242
rus	-11.5245
▁탑신	-11.5245
▁가져왔다	-11.5249
▁이용하시면	-11.5251
▁온타리오	-11.5254
流	-11.5255
▁어떤가요	-11.5259
긍	-11.5261
護	-11.5261
▁두개골	-11.5262
빌딩	-11.5263
올림픽	-11.5266
▁맹세	-11.5267
팟	-11.5268
▁목판	-11.5271
훌	-11.5276
ا	-11.5276
▁아저씨	-11.5276
개월간	-11.5279
붉	-11.5281
▁것인가	-11.5283
▁방사선	-11.5284
▁적극적인	-11.5285
▁조종사	-11.5288
다람쥐	-11.529
風	-11.529
▁키보드	-11.5294
▁키워	-11.5295
▁텔레	-11.5296
컴퍼니	-11.5297
▁실체	-11.53
NO	-11.5301
젓	-11.5304
TR	-11.5307
▁깨어	-11.531
▁난징	-11.5311
ele	-11.5313
혐	-11.5315
▁유사하다	-11.5316
齋	-11.5326
▁밀집	-11.5326
▁잔류	-11.5327
▁세팅	-11.5327
▁침투	-11.5327
▁제주특별자치도	-11.534
▁미션	-11.534
▁남자들	-11.5344
▁로비	-11.5345
특히	-11.5352
μ	-11.5354
▁저한테	-11.5356
▁숙청	-11.5357
덜	-11.5361
▁물리학자	-11.5364
▁갖추어	-11.5365
▁왔습니다	-11.5365
延	-11.5369
땐	-11.5369
▁사이타마	-11.5369
▁잡았다	-11.5371
▁폭행	-11.5371
▁판본	-11.5372
UR	-11.5376
▁프랑크푸르트	-11.5376
▁정렬	-11.5381
ó	-11.5383
▁특색	-11.5387
▁삿포로	-11.539
▁남동부	-11.5392
_13	-11.5392
▁합창	-11.5393
▁트윈스	-11.5398
▁목재	-11.5401
▁경성부	-11.5403
▁자치체	-11.5403
▁엉덩이	-11.5405
▁뇌물	-11.5408
▁시베리아	-11.5412
▁카카오	-11.5419
껏	-11.5419
하시죠	-11.542
▁분기점	-11.542
▁자세히	-11.5421
浦	-11.5426
▁않음	-11.5427
▁마늘	-11.5429
car	-11.5433
FF	-11.5436
▁성취	-11.5437
▁알코올	-11.5441
▁연세대학교	-11.5441
ney	-11.5444
▁신설되었다	-11.5445
▁평균자책점	-11.5448
秀	-11.5448
▁띤다	-11.5449
▁무엇인가	-11.545
▁많으며	-11.5454
rr	-11.5456
▁붉은색	-11.5457
HL	-11.5458
omys	-11.5464
▁알제리	-11.5464
▁야외	-11.5465
▁체력	-11.5469
off	-11.5469
▁카푸치노	-11.547
받침	-11.5475
▁애칭	-11.5475
▁후라이드	-11.5478
▁국내외	-11.5478
▁여자친구	-11.5485
在	-11.5485
▁프레임	-11.5488
▁총대주교	-11.5492
▁달걀	-11.5492
▁연산자	-11.5494
▁컬럼비아	-11.5499
탈삼진	-11.55
▁스티브	-11.5506
▁구조물	-11.5508
▁모친	-11.5516
▁말레이	-11.5517
출력	-11.5518
▁즐겨	-11.5521
徐	-11.5521
▁인턴	-11.5522
▁장기간	-11.5523
있었다	-11.5524
▁사용되지	-11.5525
▁냉장	-11.553
▁뒷면	-11.5535
헤드	-11.5535
▁스튜어트	-11.5536
▁생략	-11.5537
뱃	-11.5543
▁하워드	-11.5544
▁센다이	-11.5544
▁옹립	-11.5547
ā	-11.555
▁느꼈	-11.555
▁번씩	-11.5555
커뮤니케이션	-11.5558
▁구분된다	-11.556
▁자유로운	-11.5564
▁가죽이에요	-11.5565
常	-11.5565
▁극장판	-11.5567
▁엔딩	-11.5568
▁볼륨	-11.5572
▁희생자	-11.5574
多	-11.558
얽	-11.558
텝	-11.558
▁그랑프리	-11.558
▁없을까요	-11.5583
▁학업	-11.5584
▁벌어졌다	-11.5585
▁호랑이	-11.5585
lor	-11.5589
▁스타리그	-11.5591
대륙	-11.5591
▁기자회견	-11.5595
▁스릴러	-11.5595
팝	-11.5598
▁밀란	-11.5602
박람회	-11.5604
cle	-11.5609
▁것임을	-11.5612
▁1884	-11.5613
법칙	-11.5616
▁페널티	-11.5617
▁나란히	-11.5617
▁녀석	-11.562
깔	-11.5626
▁돌아왔	-11.5627
▁결함	-11.563
뿐이에요	-11.5631
▁갈게요	-11.5632
▁테이프	-11.5634
▁통틀어	-11.5639
dia	-11.5641
▁끓여	-11.5644
스카야	-11.5644
▁드물게	-11.5646
▁키프로스	-11.5646
▁갱신	-11.5647
rand	-11.5648
▁탐구	-11.5648
▁지나면서	-11.5652
똥	-11.5654
▁탱크	-11.5654
문학상	-11.5656
▁팔려	-11.5659
▁됩니까	-11.5661
▁아닙니다	-11.5661
▁프랑수아	-11.5661
▁스콧	-11.5666
▁찹쌀	-11.5668
▁지냈고	-11.5669
only	-11.5672
間	-11.5676
▁어느정도	-11.5676
▁봉쇄	-11.5681
▁따온	-11.5682
▁쾌속	-11.5683
BL	-11.5694
1000	-11.5695
▁에스프레소	-11.5698
▁벌써	-11.5714
▁풍속	-11.5715
▁드라이버	-11.5723
▁없던	-11.5727
헛	-11.5728
▁타이거즈	-11.5728
▁매니저	-11.5728
THE	-11.5738
여자고등학교	-11.5742
멈	-11.5743
對	-11.5743
▁반지름	-11.5746
▁택배	-11.5749
▁아름답	-11.575
≪	-11.575
口	-11.5758
▁공휴일	-11.5758
▁핵무기	-11.5758
▁횡단	-11.5759
▁쳐들어	-11.5767
해드려요	-11.5768
아일랜드	-11.5771
볍	-11.5773
≫	-11.5773
▁이성계	-11.5775
▁슬로베니아	-11.578
츄	-11.578
í	-11.5788
벵	-11.5788
▁게르만	-11.5788
▁3·1	-11.5789
▁편의점	-11.5795
멧	-11.5795
▁from	-11.5795
거래소	-11.5801
▁카자흐스탄	-11.5803
▁알려지게	-11.5806
▁연결된다	-11.581
▁꼭짓점	-11.581
▁노태우	-11.5811
▁복소수	-11.5818
▁컴백	-11.5823
▁가격대는	-11.5824
블러	-11.5828
▁아래쪽	-11.5829
朝鮮	-11.5833
National	-11.5835
▁머물렀다	-11.5841
▁세면도구	-11.5841
▁제네바	-11.5841
하셨어요	-11.5845
▁척추	-11.5848
▁배웠	-11.5849
▁휴스턴	-11.5852
▁세트메뉴	-11.5856
禪	-11.5856
▁플래시	-11.5856
풋	-11.5863
▁까닭	-11.5864
▁모로코	-11.5865
▁기다리셔야	-11.5865
ally	-11.5866
▁만족시키는	-11.5867
돋	-11.587
굉	-11.5871
▁이루며	-11.5872
▁초신성	-11.5872
▁부유한	-11.5873
密	-11.5879
▁줄무늬	-11.589
▁연쇄	-11.5891
▁결제해주세요	-11.5893
▁두꺼운	-11.5894
▁짐작	-11.5896
뉘	-11.5896
ator	-11.5897
▁만주국	-11.5901
▁트루	-11.5904
▁대웅전	-11.5909
▁소가죽	-11.5909
▁탐색	-11.591
지금의	-11.5912
▁위키백과	-11.5916
▁새겨	-11.5921
▁뉴저지	-11.5924
wo	-11.5927
(2010	-11.5933
▁암호화	-11.5934
▁먹어요	-11.5935
佐	-11.5939
▁영화배우	-11.5939
▁냉전	-11.5942
▁School	-11.5947
陳	-11.5947
▁프톨레마이오스	-11.5955
bit	-11.5957
▁어찌	-11.5959
▁탤런트	-11.5962
캣	-11.5962
▁뒷받침	-11.5963
닭	-11.5964
識	-11.597
郎	-11.597
▁열심히	-11.597
▁아이스크림	-11.5972
學校	-11.5977
▁동일하다	-11.5978
▁많으	-11.598
▁섞여	-11.5985
뒀	-11.5993
▁사망하자	-11.5998
씬	-11.6
▁가리키	-11.6005
▁객관적	-11.6008
▁기리기	-11.601
▁보낼	-11.6013
삐	-11.6016
▁깃발	-11.6016
▁도시철도	-11.6016
▁다니엘	-11.602
▁희극	-11.6037
데이터	-11.604
신도시	-11.604
흑	-11.6041
▁일리노이	-11.6054
▁둥글	-11.6054
▁멜로디	-11.6055
ition	-11.606
▁홍문관	-11.6062
▁본거지	-11.6063
▁비닐	-11.6065
▁그것들	-11.6077
왼	-11.6077
▁점성술	-11.6077
잖	-11.6091
쑥	-11.6093
▁넷째	-11.6093
先	-11.6093
▁색채	-11.6094
line	-11.6095
▁별들	-11.6102
▁인민군	-11.6103
印	-11.6108
(2002	-11.611
뻗	-11.6116
達	-11.6116
▁받았지만	-11.6123
▁전문가들	-11.613
▁북한군	-11.6131
휠	-11.6132
▁케네디	-11.6132
▁닫아요	-11.6132
▁투르크	-11.6132
志	-11.6139
▁도요토미	-11.6147
버섯	-11.6155
▁벨라루스	-11.6155
▁최상위	-11.6155
▁오른손	-11.616
툴	-11.616
뜬	-11.6163
▁라이온즈	-11.6163
▁영업시간이	-11.6164
▁석탑	-11.6171
▁땄다	-11.6171
▁이글스	-11.6174
▁트래	-11.6176
▁모서리	-11.6176
▁휘핑크림	-11.6178
▁카드결제	-11.6179
▁찢어	-11.6179
van	-11.6188
샨	-11.6194
▁어렸을	-11.6202
▁찾으	-11.6204
▁교과서	-11.6206
▁케냐	-11.6208
▁코믹스	-11.6208
pro	-11.6208
▁다녔다	-11.621
▁동성애자	-11.6213
_15	-11.6216
써	-11.6217
楊	-11.6218
▁진동벨	-11.6219
rid	-11.6221
▁계좌이체	-11.6225
▁퇴역	-11.6233
▁단무지	-11.6236
_14	-11.6238
▁소속팀	-11.6239
▁아돌프	-11.6241
▁업계	-11.6243
▁비밀리에	-11.6246
▁흥선대원군	-11.6257
▁충청도	-11.6257
▁그러다가	-11.626
쳤으며	-11.6263
▁챌린지	-11.6265
▁무소속	-11.6265
▁품종	-11.6266
▁카를로스	-11.6268
엑	-11.6271
▁매카트니	-11.6273
▁알루미늄	-11.6273
(2006	-11.6273
▁로얄	-11.6274
▁퇴임	-11.6276
삼국지	-11.6276
▁있긴	-11.6278
▁부회장	-11.6278
탬	-11.628
▁프리미엄	-11.6288
▁이를테면	-11.6288
▁헌법재판소	-11.6289
▁맞춤	-11.629
▁충남	-11.6291
▁패널	-11.6292
▁대가로	-11.6294
▁플랜	-11.6295
▁쿠퍼	-11.6297
bert	-11.6304
♬	-11.6312
▁대표이사	-11.6314
푸아	-11.6318
▁아카데미상	-11.6319
뭔	-11.6323
▁알려져있다	-11.6323
▁시애틀	-11.6328
▁싱싱	-11.6328
▁베어스	-11.6329
▁불과하다	-11.6335
▁볶음밥	-11.6336
uck	-11.6343
네이션	-11.6345
갚	-11.6352
▁남동생	-11.6352
▁설립되었으며	-11.6353
し	-11.636
用	-11.636
▁몬스터	-11.6363
▁갈수록	-11.6364
▁흑백	-11.6367
靈	-11.6368
▁무너지	-11.6372
▁효종	-11.6379
▁동성애	-11.638
▁표기법	-11.6386
헥	-11.6392
▁스킨로션	-11.6392
▁1871	-11.6392
▁얼마인데요	-11.6395
▁올라간다	-11.6396
▁반도체	-11.6399
▁프로레슬링	-11.64
任	-11.64
▁어렵습니다	-11.6402
▁에콰도르	-11.6408
▁옮긴	-11.6408
▁직원들	-11.6415
(2011	-11.6416
▁라오스	-11.6418
▁샐러드	-11.6424
▁어떠신가요	-11.6424
。	-11.6424
기위해	-11.6427
玄	-11.644
섀	-11.644
▁드디어	-11.644
삼국사기	-11.6448
甲	-11.6448
니깐	-11.6456
▁트리플	-11.6457
▁모르겠어요	-11.6469
▁뮤지션	-11.6472
▁드러났다	-11.6472
▁맞붙	-11.6475
○	-11.648
▁구비되어	-11.648
헝가리	-11.6482
및	-11.6491
▁희곡	-11.6491
▁어둠	-11.6493
▁할리우드	-11.6496
反	-11.6504
▁다항식	-11.6504
▁덩어리	-11.6512
▁가고시마	-11.6512
센티미터	-11.6513
▁서유럽	-11.6521
▁방사성	-11.6521
▁그레고리오	-11.6521
뮤직	-11.6522
▁슈팅	-11.6522
횡	-11.6523
▁묘역	-11.6526
▁후속작	-11.6527
▁듣지	-11.653
▁취업	-11.654
▁발견되지	-11.6541
▁원로원	-11.6545
▁찍어주세요	-11.6547
법률	-11.6547
▁저기압	-11.6548
0.0	-11.655
▁불꽃	-11.6551
햇	-11.6552
inter	-11.6558
시켰으며	-11.6564
걔	-11.6569
쌈	-11.6577
eck	-11.6583
統	-11.6593
▁붙였다	-11.6594
챔	-11.6601
윅	-11.6609
▁무엇보다	-11.6609
▁윤보선	-11.661
짬뽕	-11.6614
▁몰아내	-11.6615
ν	-11.6617
▁레스토랑	-11.6617
▁뒤이어	-11.6619
▁붙었다	-11.6619
▁한국시리즈	-11.6625
▁타이베이	-11.663
▁광저우	-11.6631
마르크	-11.6632
부원군	-11.6637
▁새겨진	-11.6639
▁멋진	-11.664
▁퀘벡	-11.6642
▁일으킬	-11.665
▁트로이	-11.6656
▁스마트	-11.6658
▁아폴로	-11.6659
▁덮여	-11.666
▁스몰	-11.666
▁취향	-11.6664
늑	-11.6666
務	-11.6667
許	-11.6667
▁니가타	-11.6668
▁감싸	-11.6682
▁필리프	-11.6683
▁라이언	-11.6683
▁바실리	-11.6685
▁고마워요	-11.6686
▁때문이라고	-11.6686
▁알려졌	-11.6688
~18	-11.6691
▁바르샤바	-11.6691
▁낮추	-11.6697
▁차돌박이	-11.6699
▁추천해주실	-11.6703
▁투룸	-11.6707
고등보통학교	-11.6716
긋	-11.6724
▁벽돌	-11.6732
▁파라과이	-11.6734
젯	-11.6741
솟	-11.6749
썩	-11.6749
頭	-11.6765
굵	-11.6781
諸	-11.6783
젝	-11.6832
찍	-11.6833
흩	-11.684
ä	-11.6849
線	-11.6849
엮	-11.6857
儀	-11.689
百	-11.6891
伯	-11.6924
튬	-11.6924
팍	-11.6932
意	-11.6941
■	-11.6958
췄	-11.6983
出	-11.6984
캔	-11.6986
な	-11.6992
從	-11.6993
團	-11.7
펫	-11.7009
勝	-11.7017
땀	-11.706
훼	-11.7077
챙	-11.7085
ι	-11.7085
坐	-11.7094
亭	-11.7102
삽	-11.7119
現	-11.7119
ᄋ	-11.7119
祭	-11.7128
沈	-11.7145
鳳	-11.7162
數	-11.7163
흙	-11.7177
朱	-11.718
豊	-11.7188
想	-11.7188
ς	-11.7197
商	-11.7232
잼	-11.7249
愛	-11.7258
關	-11.7266
運	-11.7284
숫	-11.729
뚜	-11.7345
我	-11.7345
嘉	-11.7354
쪼	-11.7354
칩	-11.7363
車	-11.738
麗	-11.7389
{	-11.7406
같	-11.7412
퀵	-11.7416
遺	-11.7416
異	-11.7424
큘	-11.7433
か	-11.7433
遠	-11.7434
解	-11.7442
꼼	-11.746
墓	-11.7469
욘	-11.7469
녜	-11.7495
굶	-11.7504
領	-11.7513
魏	-11.7513
꽉	-11.754
秦	-11.7567
晉	-11.7567
起	-11.7576
귄	-11.7585
귤	-11.7589
錫	-11.7594
第	-11.7594
管	-11.7603
싣	-11.7603
솥	-11.763
察	-11.7648
뜻	-11.7662
궈	-11.7675
댁	-11.7675
處	-11.7685
뮌	-11.7693
껴	-11.7702
홈	-11.7726
뚱	-11.7739
갯	-11.7739
伊	-11.7748
쵸	-11.7748
얕	-11.7785
듭	-11.7786
支	-11.7794
烈	-11.7812
竹	-11.7813
園	-11.784
受	-11.7849
샵	-11.7858
겟	-11.7858
非	-11.7858
場	-11.7877
얄	-11.7894
팰	-11.7951
ρ	-11.7988
器	-11.7988
氣	-11.7988
랬	-11.8043
草	-11.8045
畵	-11.8073
짖	-11.8073
廳	-11.8082
―	-11.8082
뫼	-11.8111
榮	-11.813
た	-11.813
居	-11.813
}	-11.8139
鐵	-11.8158
랏	-11.8168
次	-11.8177
加	-11.8177
샷	-11.8192
τ	-11.8216
湖	-11.8216
夏	-11.8235
千	-11.8244
갇	-11.8254
鄕	-11.8264
始	-11.8273
恩	-11.8283
탔	-11.8283
益	-11.8283
빼	-11.829
댓	-11.8312
提	-11.8312
秋	-11.8321
調	-11.8321
ん	-11.8331
뭐	-11.8349
깎	-11.835
紀	-11.8361
報	-11.837
덮	-11.8379
왓	-11.8389
火	-11.8389
찮	-11.8399
봄	-11.8408
м	-11.8419
沙	-11.8419
챈	-11.8438
初	-11.8438
熙	-11.8468
雄	-11.8468
術	-11.8497
렝	-11.8497
д	-11.8517
뭄	-11.8537
샐	-11.8556
泉	-11.8576
果	-11.8586
ス	-11.8606
엎	-11.8606
試	-11.8616
と	-11.8616
낮	-11.866
숲	-11.866
舍	-11.8666
柱	-11.8676
夫	-11.8714
慧	-11.8716
昭	-11.8716
큼	-11.8718
꿰	-11.8726
훤	-11.8726
姓	-11.8736
엥	-11.8746
容	-11.8746
у	-11.8757
딥	-11.8767
싯	-11.8767
力	-11.8767
웍	-11.8787
崇	-11.8787
得	-11.8799
떻	-11.8817
室	-11.8817
푹	-11.8828
品	-11.8838
뜰	-11.8848
깁	-11.8858
즙	-11.8858
굽	-11.8865
뮈	-11.8868
찐	-11.8899
맷	-11.8906
곧	-11.8917
丁	-11.894
惠	-11.8981
橋	-11.8981
吏	-11.8981
嚴	-11.9002
尉	-11.9012
샴	-11.9023
멕	-11.9033
黨	-11.9033
圓	-11.9064
탭	-11.9064
資	-11.9064
系	-11.9075
쁨	-11.9075
う	-11.9085
싼	-11.9089
△	-11.9096
戶	-11.9096
빽	-11.9106
숯	-11.9117
育	-11.9127
뜸	-11.9127
렙	-11.9148
닮	-11.915
돗	-11.9159
曲	-11.9169
λ	-11.918
흉	-11.9193
營	-11.9201
깐	-11.9242
ل	-11.9243
共	-11.9254
樞	-11.9254
짚	-11.9264
姜	-11.9296
띤	-11.9307
植	-11.9318
ε	-11.9328
삿	-11.9339
能	-11.9351
붓	-11.9355
췌	-11.9361
뿜	-11.9371
役	-11.9371
톈	-11.9393
因	-11.9393
池	-11.9425
顯	-11.9447
る	-11.9479
仲	-11.948
캄	-11.952
俊	-11.9523
彦	-11.9545
듐	-11.9578
局	-11.9578
首	-11.9589
致	-11.9589
イ	-11.96
믈	-11.96
卿	-11.96
蘇	-11.9611
妃	-11.9611
庵	-11.9622
둡	-11.9666
»	-11.9666
手	-11.9677
뎅	-11.9677
맬	-11.9677
尊	-11.9677
機	-11.9688
象	-11.9688
目	-11.9688
쿡	-11.9699
母	-11.9699
齊	-11.9699
牧	-11.9721
깅	-11.9732
表	-11.9732
괌	-11.9744
@	-11.9744
總	-11.9755
«	-11.9755
香	-11.9755
覺	-11.9766
β	-11.9766
咸	-11.9799
り	-11.9811
딧	-11.9833
촬	-11.9844
깜	-11.9844
盧	-11.9844
恭	-11.9845
썹	-11.9867
쾨	-11.9901
宇	-11.9912
發	-11.9924
σ	-11.9946
훙	-11.9946
瑞	-11.9946
極	-11.9946
少	-11.9981
情	-11.9981
産	-11.9992
깝	-11.9993
낡	-12.0003
波	-12.0026
눔	-12.0038
岩	-12.0038
男	-12.0084
故	-12.0084
入	-12.0108
왁	-12.0119
に	-12.0119
魚	-12.0119
늪	-12.013
富	-12.013
員	-12.0142
썰	-12.0152
깍	-12.0153
鍾	-12.0153
虎	-12.0154
獻	-12.0177
群	-12.02
숍	-12.0211
房	-12.0235
벙	-12.0247
～	-12.027
博	-12.027
学	-12.0294
倉	-12.0317
陸	-12.0317
봅	-12.0317
蓮	-12.0329
農	-12.0329
結	-12.0329
功	-12.0341
協	-12.0365
뇽	-12.04
셴	-12.04
閣	-12.0412
て	-12.0425
è	-12.0436
ル	-12.0448
靖	-12.0448
켰	-12.0449
☆	-12.046
陰	-12.046
贊	-12.046
잦	-12.0483
壇	-12.0484
퀼	-12.0484
僧	-12.0496
짠	-12.0508
ま	-12.0508
普	-12.052
맴	-12.0569
킵	-12.0569
ら	-12.0581
仙	-12.0593
숀	-12.0593
呂	-12.0593
角	-12.0605
픔	-12.0629
뵈	-12.0642
퀄	-12.0642
蔡	-12.0642
域	-12.0654
닫	-12.0658
彌	-12.069
死	-12.0691
—	-12.0715
옛	-12.0733
벚	-12.0764
巖	-12.0764
久	-12.0764
뮐	-12.0777
可	-12.0791
峰	-12.0801
板	-12.0814
半	-12.0814
驛	-12.0852
쿰	-12.0889
핼	-12.0889
翼	-12.0889
벗	-12.0949
交	-12.0951
댕	-12.0964
督	-12.0965
땃	-12.0989
뺏	-12.1002
燕	-12.104
乙	-12.104
町	-12.1053
境	-12.1065
ラ	-12.1078
父	-12.1078
衆	-12.1079
邊	-12.1091
잣	-12.1091
丹	-12.1104
흰	-12.1116
台	-12.1168
틈	-12.1169
옮	-12.1193
릅	-12.1206
뽀	-12.1206
κ	-12.1258
뱀	-12.1274
낯	-12.1284
−	-12.1297
숏	-12.1297
船	-12.1297
職	-12.131
輔	-12.131
앨	-12.1312
촘	-12.1336
完	-12.1336
쏜	-12.1349
範	-12.1362
陀	-12.1362
舊	-12.1389
튠	-12.1389
′	-12.1415
衣	-12.1429
越	-12.1429
€	-12.1441
連	-12.1442
슘	-12.1454
貴	-12.1482
變	-12.1495
舞	-12.1508
莊	-12.1521
復	-12.1535
座	-12.1548
퓌	-12.1561
律	-12.1562
友	-12.1575
近	-12.1588
は	-12.1588
떤	-12.1597
隆	-12.1601
惡	-12.1601
隨	-12.1615
防	-12.1615
層	-12.1628
純	-12.1628
赤	-12.1629
쏟	-12.1655
슌	-12.1655
勳	-12.1669
住	-12.1683
禁	-12.1696
텅	-12.1709
旨	-12.171
멩	-12.1723
엌	-12.175
펭	-12.175
淵	-12.175
힙	-12.1778
銀	-12.1778
種	-12.1791
꿀	-12.1799
딱	-12.1803
웜	-12.1832
쟤	-12.1846
爲	-12.1864
溫	-12.1888
팥	-12.1901
足	-12.1902
藝	-12.1943
쭤	-12.1971
팎	-12.1971
訓	-12.1971
電	-12.1971
類	-12.1971
く	-12.1971
リ	-12.1985
鶴	-12.1985
쏠	-12.1985
區	-12.1999
쫄	-12.1999
署	-12.1999
쓸	-12.2029
き	-12.2041
緣	-12.2055
執	-12.2069
淑	-12.207
엡	-12.2083
캇	-12.2097
祠	-12.2097
ト	-12.2125
줍	-12.2125
條	-12.2125
禹	-12.2139
私	-12.2154
址	-12.2168
퍽	-12.2182
取	-12.2182
備	-12.2211
갓	-12.2216
廟	-12.2225
奇	-12.2225
苦	-12.2239
닿	-12.2245
딴	-12.2245
훗	-12.2282
臨	-12.2282
觸	-12.2311
喜	-12.2311
毛	-12.2325
特	-12.2354
轉	-12.2355
慈	-12.2383
哲	-12.2398
内	-12.2398
퓰	-12.2427
淨	-12.2442
珍	-12.2442
욤	-12.25
龜	-12.2515
맡	-12.254
잭	-12.254
쩍	-12.2544
精	-12.2545
똑	-12.2559
멱	-12.2574
많	-12.2585
밑	-12.2585
丘	-12.2589
今	-12.2591
폈	-12.2604
那	-12.2604
以	-12.2609
持	-12.2619
퓨	-12.2631
郭	-12.2633
兼	-12.2634
養	-12.2634
쑨	-12.2648
й	-12.2663
儒	-12.2663
펩	-12.2693
盛	-12.2723
麻	-12.2753
念	-12.2769
맵	-12.2783
劇	-12.2783
雨	-12.2784
愼	-12.2784
誠	-12.2799
要	-12.2799
載	-12.2814
具	-12.2814
첫	-12.2814
롄	-12.2829
춥	-12.2829
淳	-12.2844
짤	-12.2859
찼	-12.2859
쩐	-12.2859
刑	-12.2859
洋	-12.2875
隊	-12.2875
밧	-12.2875
슝	-12.2875
팻	-12.2875
聲	-12.292
斗	-12.2951
譜	-12.2966
쉰	-12.2966
岡	-12.2967
π	-12.2982
射	-12.2982
牛	-12.2982
헐	-12.3001
끌	-12.3003
均	-12.3013
맏	-12.3013
쥘	-12.3028
惱	-12.3028
期	-12.3029
녁	-12.304
隱	-12.3044
葉	-12.3044
깡	-12.3044
쌉	-12.3044
\	-12.3044
檢	-12.3059
꽁	-12.3075
さ	-12.3075
允	-12.3075
앉	-12.308
邑	-12.309
藩	-12.309
布	-12.3091
썼	-12.3111
羽	-12.3137
戒	-12.3138
쏘	-12.3143
츨	-12.3153
윌	-12.3159
聯	-12.3169
±	-12.3184
戦	-12.32
ッ	-12.3216
至	-12.3217
칫	-12.3232
醫	-12.3232
촐	-12.3232
欲	-12.3232
だ	-12.3248
켤	-12.3263
澤	-12.3264
낀	-12.3279
魯	-12.3295
얌	-12.3311
謙	-12.3311
を	-12.3327
釋	-12.3359
若	-12.3376
뎀	-12.3391
긁	-12.3391
쩡	-12.3407
퀸	-12.3418
캬	-12.3423
弼	-12.3423
훅	-12.3439
肅	-12.3439
岳	-12.3456
希	-12.3456
켐	-12.3472
胡	-12.3472
改	-12.3488
덥	-12.3488
갸	-12.352
銅	-12.352
딤	-12.3537
球	-12.3537
賀	-12.3553
갖	-12.3565
閔	-12.3569
獨	-12.357
お	-12.3602
綱	-12.3603
摠	-12.3603
걱	-12.3618
こ	-12.3619
꼭	-12.365
奎	-12.3651
靜	-12.3651
챠	-12.3668
製	-12.3668
ア	-12.3684
狀	-12.3685
γ	-12.3734
冠	-12.3751
祿	-12.3751
랠	-12.3768
눕	-12.3801
г	-12.3818
素	-12.3834
件	-12.3851
ク	-12.3868
放	-12.3868
比	-12.3885
考	-12.3902
я	-12.3919
ы	-12.3936
썸	-12.3936
뎌	-12.3953
清	-12.3987
밴	-12.4003
浩	-12.4004
씹	-12.4021
雙	-12.4038
留	-12.4038
쓴	-12.4043
밈	-12.4055
ي	-12.4055
탤	-12.4072
꿨	-12.4107
封	-12.4107
助	-12.4124
穆	-12.4124
警	-12.4124
뇰	-12.4124
룻	-12.4141
列	-12.4142
補	-12.4159
屋	-12.4159
あ	-12.4159
兒	-12.4176
깻	-12.4176
퀀	-12.4176
剛	-12.4176
離	-12.4176
嶺	-12.4177
洛	-12.4194
ī	-12.4211
餘	-12.4211
헝	-12.4228
쥔	-12.4228
易	-12.4228
桂	-12.4228
兩	-12.4247
于	-12.4248
向	-12.4263
眼	-12.4263
丞	-12.4263
蘭	-12.4281
尾	-12.4281
珠	-12.4281
由	-12.4281
‧	-12.4298
亂	-12.43
욜	-12.4316
鏡	-12.4334
δ	-12.4351
칵	-12.4351
茂	-12.4369
甫	-12.4369
汝	-12.4387
늠	-12.4387
ن	-12.4387
洙	-12.4405
会	-12.4405
夢	-12.4422
뱌	-12.444
望	-12.4459
ç	-12.4476
η	-12.4476
樓	-12.4476
約	-12.4476
僉	-12.4476
딛	-12.4494
港	-12.4494
캥	-12.4494
孟	-12.4494
챌	-12.4512
量	-12.453
帶	-12.4548
究	-12.4548
も	-12.4548
講	-12.4548
問	-12.4566
夷	-12.4566
煩	-12.4566
然	-12.4567
탠	-12.458
멋	-12.458
克	-12.4584
が	-12.4585
誌	-12.462
好	-12.462
諫	-12.4621
滿	-12.4638
꽝	-12.4657
晋	-12.4657
烏	-12.4657
ь	-12.4675
뛴	-12.4693
單	-12.4693
빡	-12.4711
잤	-12.4711
聞	-12.4714
卷	-12.473
辛	-12.4748
己	-12.4748
ち	-12.4767
末	-12.4785
摩	-12.4822
邪	-12.4822
錦	-12.4822
쿵	-12.4841
툭	-12.4841
煥	-12.4841
飛	-12.4841
쏴	-12.4897
增	-12.4897
徳	-12.4897
杜	-12.4897
質	-12.4897
影	-12.4915
句	-12.4915
型	-12.4934
端	-12.4934
뛸	-12.4953
꿇	-12.4971
볕	-12.4971
啓	-12.499
넴	-12.5009
랗	-12.5028
葛	-12.5028
屬	-12.5047
麟	-12.5066
僕	-12.5066
뀔	-12.5066
財	-12.5066
孔	-12.5085
滅	-12.5085
寅	-12.5104
タ	-12.5104
慕	-12.5104
乘	-12.5124
翰	-12.5142
騎	-12.5143
辰	-12.5161
み	-12.5181
뵙	-12.5181
す	-12.5181
鳥	-12.5181
斷	-12.52
恒	-12.5219
妙	-12.5258
裵	-12.5258
懿	-12.5258
選	-12.5258
祥	-12.5277
貪	-12.5297
뺀	-12.5297
뺄	-12.5297
콴	-12.5297
힉	-12.5297
م	-12.5297
威	-12.5336
⁄	-12.5336
敏	-12.5374
衡	-12.5375
^	-12.5394
藥	-12.5394
샌	-12.5405
樹	-12.5414
酒	-12.5414
技	-12.5434
쉘	-12.5453
筆	-12.5453
댈	-12.5473
雅	-12.5473
댔	-12.5473
服	-12.5473
演	-12.5473
假	-12.5493
籍	-12.5513
돛	-12.5513
읊	-12.5513
亨	-12.5513
叔	-12.5513
央	-12.5513
刺	-12.5513
뜯	-12.5529
簡	-12.5533
廷	-12.5533
条	-12.5533
à	-12.5552
С	-12.5552
厚	-12.5572
求	-12.5573
則	-12.5573
쩌	-12.5589
敦	-12.5592
賜	-12.5593
넓	-12.5606
宅	-12.5612
黑	-12.5612
헴	-12.5612
依	-12.5612
散	-12.5613
れ	-12.5613
宰	-12.5613
シ	-12.5633
雜	-12.5633
計	-12.5633
꼽	-12.5647
格	-12.5653
つ	-12.5673
п	-12.5673
銘	-12.5673
숄	-12.5693
邱	-12.5693
遊	-12.5693
梅	-12.5713
硏	-12.5734
釜	-12.5734
指	-12.5734
續	-12.5754
و	-12.5774
낚	-12.5814
題	-12.5815
征	-12.5815
É	-12.5836
圭	-12.5836
未	-12.5857
ر	-12.5877
宜	-12.5878
略	-12.5897
ᄀ	-12.5897
擧	-12.5898
낌	-12.5918
扶	-12.5918
願	-12.5918
★	-12.5939
쭈	-12.5939
裕	-12.5959
뜩	-12.5959
茶	-12.5959
룹	-12.5975
難	-12.5982
話	-12.6001
丙	-12.6001
젬	-12.6022
θ	-12.6064
ч	-12.6064
깼	-12.6064
좡	-12.6064
ド	-12.6085
諦	-12.6085
얗	-12.6085
팸	-12.6085
뺨	-12.6085
回	-12.6106
팁	-12.6106
輪	-12.6106
쎄	-12.6126
紅	-12.6129
準	-12.6148
細	-12.6148
丸	-12.6148
漏	-12.6148
넉	-12.6191
版	-12.6233
爾	-12.6235
襄	-12.6255
曺	-12.6255
證	-12.6255
桓	-12.6276
環	-12.6276
핌	-12.6319
軒	-12.6319
쑹	-12.634
設	-12.634
씀	-12.6358
뮴	-12.6362
â	-12.6384
季	-12.6384
б	-12.6405
홋	-12.6405
盟	-12.6405
찻	-12.6427
웁	-12.6449
勢	-12.645
庫	-12.6471
梵	-12.6471
刻	-12.6471
注	-12.6472
ú	-12.6493
策	-12.6493
횃	-12.6515
뉜	-12.6537
ί	-12.6537
놉	-12.6537
庶	-12.6537
祐	-12.6537
倭	-12.6537
歸	-12.6559
革	-12.6559
殷	-12.6559
庭	-12.6559
俗	-12.6603
客	-12.6603
旗	-12.6625
洲	-12.6647
繼	-12.6648
찢	-12.669
坊	-12.6692
乾	-12.6692
먀	-12.6692
뱉	-12.6692
옆	-12.6721
契	-12.6737
卞	-12.6759
最	-12.6759
遼	-12.676
固	-12.6782
骨	-12.6782
勞	-12.6782
際	-12.6827
詞	-12.6827
切	-12.6827
登	-12.6827
廉	-12.6827
簿	-12.6827
食	-12.6849
묻	-12.6865
몇	-12.6882
欽	-12.6895
童	-12.6941
カ	-12.6964
υ	-12.6987
빤	-12.6987
凉	-12.6987
震	-12.701
雪	-12.701
튿	-12.7033
蘊	-12.7033
え	-12.7033
땄	-12.7055
よ	-12.7056
贈	-12.7056
뻣	-12.7079
逸	-12.7079
振	-12.7079
夜	-12.708
寬	-12.7102
県	-12.7102
昇	-12.7102
組	-12.7102
匡	-12.7126
亞	-12.7126
惟	-12.7129
ά	-12.7149
巨	-12.7149
깬	-12.7172
曆	-12.7172
ό	-12.7196
蒙	-12.7196
健	-12.7196
Δ	-12.7219
翊	-12.7219
休	-12.722
程	-12.7243
マ	-12.7267
邦	-12.7267
譯	-12.729
追	-12.729
웸	-12.7314
陶	-12.7314
웹	-12.7314
ł	-12.7338
翁	-12.7338
也	-12.7338
룀	-12.7362
序	-12.7362
紫	-12.7386
뻘	-12.741
坡	-12.741
鑑	-12.741
ω	-12.7434
け	-12.7458
納	-12.7458
蓋	-12.7458
쉼	-12.7482
袁	-12.7506
點	-12.7506
峴	-12.7506
š	-12.753
寫	-12.753
鼎	-12.7531
앳	-12.7555
懷	-12.7556
ジ	-12.7579
皮	-12.7628
積	-12.7629
斯	-12.7629
琴	-12.7677
送	-12.7702
っ	-12.7702
紙	-12.7727
編	-12.7727
尼	-12.7727
鉉	-12.7727
深	-12.7727
疏	-12.7752
推	-12.7752
超	-12.7776
掌	-12.7801
刊	-12.7826
晩	-12.7826
浮	-12.7826
感	-12.7877
区	-12.7877
ロ	-12.7902
х	-12.7902
徒	-12.7902
ñ	-12.7927
헷	-12.7952
́	-12.7952
닳	-12.7952
磨	-12.7952
亮	-12.7978
毅	-12.8003
갠	-12.8003
넵	-12.8003
止	-12.8003
巡	-12.8004
뒷	-12.8015
再	-12.8055
섞	-12.8067
〜	-12.808
介	-12.808
病	-12.8106
迦	-12.8106
甘	-12.8106
姬	-12.8157
過	-12.8209
施	-12.8209
깄	-12.8235
з	-12.8235
勒	-12.8261
レ	-12.8261
쌌	-12.8287
壤	-12.8287
歷	-12.8288
才	-12.8314
땜	-12.8314
露	-12.8314
د	-12.834
で	-12.834
キ	-12.8366
崎	-12.8366
織	-12.8366
냇	-12.8393
罪	-12.8419
習	-12.8419
而	-12.8451
フ	-12.8473
젖	-12.8493
落	-12.8499
虛	-12.8526
磁	-12.8553
鐘	-12.8553
ᅳ	-12.8553
눅	-12.858
染	-12.858
펼	-12.8604
盤	-12.8607
構	-12.8607
윳	-12.8607
真	-12.8607
奴	-12.8607
墳	-12.8634
維	-12.8634
戸	-12.8634
熊	-12.8634
邉	-12.8634
奏	-12.8635
援	-12.8661
專	-12.8661
站	-12.8661
宿	-12.8662
殺	-12.8689
街	-12.8716
存	-12.8716
샛	-12.8716
텡	-12.8743
К	-12.8771
壁	-12.8771
鮮	-12.8798
ß	-12.8798
料	-12.8798
畿	-12.8826
쇤	-12.8826
置	-12.8826
鎬	-12.8826
뽕	-12.8854
鹿	-12.8854
뻑	-12.8881
ê	-12.8881
於	-12.8888
ニ	-12.8909
墨	-12.8909
쪄	-12.8909
芳	-12.8937
꺽	-12.8937
岐	-12.8937
背	-12.8938
폄	-12.8965
ı	-12.8965
눗	-12.8993
株	-12.8993
評	-12.9021
頼	-12.9021
쌓	-12.9024
速	-12.905
륄	-12.905
휼	-12.905
紋	-12.905
楚	-12.9051
睦	-12.9078
勇	-12.9078
幸	-12.9079
コ	-12.9106
撰	-12.9106
蹟	-12.9106
홑	-12.9135
冬	-12.9135
옙	-12.9163
貢	-12.9163
失	-12.9164
述	-12.9164
秉	-12.9192
わ	-12.9192
믄	-12.9192
オ	-12.9192
鳴	-12.9192
賓	-12.9192
干	-12.9192
獄	-12.9221
潤	-12.925
∙	-12.925
渡	-12.925
弟	-12.9279
얘	-12.9286
峯	-12.9308
堅	-12.9308
祚	-12.9337
솅	-12.9337
坂	-12.9337
灣	-12.9337
移	-12.9337
項	-12.9337
當	-12.934
ᄅ	-12.9366
眠	-12.9366
炳	-12.9366
與	-12.9369
됭	-12.9395
ᄃ	-12.9395
鬼	-12.9395
튕	-12.9424
階	-12.9454
揚	-12.9456
껀	-12.9483
輝	-12.9483
캅	-12.9512
嬪	-12.9513
낵	-12.9513
횟	-12.9541
碩	-12.9542
刀	-12.9543
配	-12.9543
닙	-12.9572
葬	-12.9572
ᄂ	-12.9602
댑	-12.9602
米	-12.9602
텟	-12.9632
じ	-12.9632
戱	-12.9633
£	-12.9662
步	-12.9662
燈	-12.9692
鼓	-12.9692
æ	-12.9722
얏	-12.9722
耳	-12.9723
밟	-12.9738
稅	-12.9753
舜	-12.9753
倫	-12.9753
引	-12.9753
А	-12.9783
왠	-12.9783
喪	-12.9814
떴	-12.9814
ب	-12.9814
将	-12.9814
瞋	-12.9844
帥	-12.9844
旌	-12.9875
ū	-12.9875
何	-12.9879
活	-12.9906
徽	-12.9906
忍	-12.9906
告	-12.9937
差	-12.9937
吾	-12.994
ᄆ	-12.9967
享	-12.9967
蔚	-12.9967
賊	-12.9978
ナ	-12.9999
멥	-12.9999
秘	-12.9999
規	-12.9999
勤	-12.9999
읽	-13.0083
壬	-13.0092
奈	-13.0092
嗣	-13.0092
胤	-13.0124
맣	-13.0124
쁠	-13.0124
텁	-13.0124
륀	-13.0155
ć	-13.0155
照	-13.0187
ш	-13.0219
▲	-13.0219
幀	-13.0219
潭	-13.0219
錢	-13.0219
旅	-13.022
撫	-13.022
낫	-13.0244
泳	-13.025
팠	-13.0251
操	-13.0251
諡	-13.0251
青	-13.0251
候	-13.0251
뚫	-13.0276
燮	-13.0282
愚	-13.0282
導	-13.0315
讀	-13.0315
춧	-13.0315
般	-13.0347
껄	-13.0347
П	-13.0347
敵	-13.0348
꿔	-13.0375
庚	-13.0379
φ	-13.0411
쨌	-13.0411
弓	-13.0411
附	-13.0445
紹	-13.0476
貫	-13.0476
텃	-13.0476
や	-13.0476
歲	-13.0477
辭	-13.0477
謝	-13.0509
帖	-13.0509
伽	-13.0509
̊	-13.0542
案	-13.0542
힝	-13.0542
惑	-13.0542
爭	-13.0542
魔	-13.0542
其	-13.0546
教	-13.0575
賞	-13.061
챕	-13.0641
庄	-13.0641
関	-13.0641
浪	-13.0674
꿉	-13.0674
段	-13.0674
癡	-13.0674
午	-13.0707
率	-13.0708
꼰	-13.0741
솝	-13.0741
젼	-13.0741
햐	-13.0741
耶	-13.0742
決	-13.0774
ウ	-13.0774
썽	-13.0774
消	-13.0808
視	-13.0808
降	-13.0808
넋	-13.0842
뽐	-13.0842
篇	-13.0842
裝	-13.0842
伏	-13.0843
В	-13.0876
頂	-13.0876
兪	-13.0876
是	-13.0876
鴻	-13.0911
算	-13.0944
갛	-13.0944
뎃	-13.0944
劍	-13.0944
授	-13.098
唱	-13.1012
壯	-13.1012
須	-13.1012
펴	-13.1016
앱	-13.1018
熱	-13.1047
曾	-13.1047
創	-13.1048
ô	-13.1082
攝	-13.1082
塚	-13.1082
ø	-13.1116
ᄏ	-13.1116
睿	-13.1116
땠	-13.1151
М	-13.1151
テ	-13.1151
幕	-13.1151
쫒	-13.1186
害	-13.1186
バ	-13.1221
댜	-13.1221
稷	-13.1222
箕	-13.1256
韻	-13.1256
驪	-13.1256
豆	-13.1292
촨	-13.1325
標	-13.1327
좇	-13.1327
齡	-13.1327
兄	-13.1327
禧	-13.1363
ノ	-13.1363
堤	-13.1363
実	-13.1363
材	-13.1363
ミ	-13.1363
森	-13.1363
傅	-13.1398
뢴	-13.1398
障	-13.1399
綠	-13.1434
彩	-13.1434
符	-13.1434
檀	-13.147
잿	-13.1506
舌	-13.1506
還	-13.1508
늉	-13.1543
班	-13.1579
헹	-13.1579
栗	-13.1579
坪	-13.1615
짬	-13.1615
伐	-13.1616
芝	-13.1616
限	-13.1616
豫	-13.1616
衍	-13.1616
蜀	-13.1616
請	-13.1618
寂	-13.1652
薛	-13.1652
破	-13.1653
卯	-13.1689
밝	-13.1707
⟫	-13.1763
펨	-13.1763
舟	-13.1763
顔	-13.1763
模	-13.1763
疑	-13.18
〕	-13.18
꽈	-13.18
菴	-13.18
包	-13.18
ひ	-13.18
鍊	-13.18
뷸	-13.1837
哀	-13.1838
董	-13.1839
蔵	-13.1875
廢	-13.1876
徵	-13.1876
チ	-13.1912
ャ	-13.1912
査	-13.1912
級	-13.1912
仕	-13.1912
岸	-13.195
微	-13.195
텨	-13.195
俱	-13.195
낄	-13.1988
婦	-13.1988
著	-13.1988
跋	-13.1988
됬	-13.1988
函	-13.1988
唯	-13.1988
宝	-13.1988
退	-13.1989
寒	-13.1989
〔	-13.2026
優	-13.2026
慢	-13.2026
⟪	-13.2064
談	-13.2064
脫	-13.2066
サ	-13.2102
찹	-13.2102
亥	-13.2103
エ	-13.2141
冊	-13.2141
経	-13.2141
陣	-13.2142
ã	-13.2218
웡	-13.2218
뤽	-13.2218
핥	-13.2218
좁	-13.2247
巫	-13.2257
毘	-13.2257
賦	-13.2257
잃	-13.2286
Р	-13.2296
肉	-13.2296
淮	-13.2296
牙	-13.2296
覆	-13.2296
終	-13.2296
羊	-13.2297
옻	-13.2335
柴	-13.2336
꼈	-13.2375
血	-13.2375
幹	-13.2375
빳	-13.2375
□	-13.2375
讓	-13.2375
広	-13.2375
展	-13.2414
ع	-13.2414
桃	-13.2414
示	-13.2414
萊	-13.2454
稱	-13.2454
꿋	-13.2454
酉	-13.2494
귈	-13.2494
짭	-13.2494
婆	-13.2494
漁	-13.2494
녘	-13.2534
例	-13.2534
審	-13.2534
헵	-13.2574
Б	-13.2574
卓	-13.2574
救	-13.2574
屯	-13.2576
融	-13.2614
腹	-13.2614
좆	-13.2614
탯	-13.2614
巴	-13.2614
駐	-13.2655
ィ	-13.2655
ば	-13.2695
絶	-13.2696
컹	-13.2696
潘	-13.2696
匠	-13.2696
映	-13.2696
去	-13.2697
끓	-13.2734
ュ	-13.2736
눴	-13.2736
丈	-13.2736
必	-13.2736
了	-13.2777
쬐	-13.2777
他	-13.2777
味	-13.2777
接	-13.2818
숴	-13.2818
έ	-13.2819
굼	-13.286
묄	-13.286
巳	-13.286
씁	-13.2901
愍	-13.2902
ズ	-13.2943
胎	-13.2943
뵐	-13.2943
짊	-13.2943
─	-13.2943
孤	-13.2943
껌	-13.2943
症	-13.2943
佑	-13.2985
戊	-13.2985
雍	-13.2985
쌔	-13.3027
輿	-13.3027
給	-13.3028
プ	-13.3069
油	-13.3069
똘	-13.3069
줏	-13.3069
뎬	-13.3069
橫	-13.307
듈	-13.3106
グ	-13.3111
碧	-13.3111
걘	-13.3111
쌤	-13.3111
ə	-13.3111
س	-13.3154
尺	-13.3154
삶	-13.3158
ц	-13.3197
括	-13.3197
꾹	-13.3197
妻	-13.3197
收	-13.3197
遂	-13.3199
鷄	-13.324
ᄇ	-13.324
쐈	-13.324
癸	-13.324
崖	-13.3283
澄	-13.3283
县	-13.3283
輕	-13.3284
χ	-13.3326
爵	-13.3326
稿	-13.3326
잰	-13.3326
逆	-13.3326
め	-13.3326
늦	-13.3333
脈	-13.3369
덫	-13.3369
閭	-13.3369
ム	-13.3413
祀	-13.3413
듦	-13.3413
젱	-13.3413
番	-13.3457
궂	-13.3457
툇	-13.3457
赫	-13.3457
쨩	-13.3457
覽	-13.3457
貨	-13.3457
་	-13.3458
ハ	-13.3501
헉	-13.3501
齒	-13.3545
鬪	-13.3545
뉠	-13.359
幡	-13.359
禎	-13.3634
ή	-13.3634
볏	-13.3634
濬	-13.3634
折	-13.3634
꿩	-13.3679
볜	-13.3679
툿	-13.3679
ō	-13.3679
ت	-13.3679
曰	-13.3693
築	-13.3724
ᄉ	-13.3724
委	-13.3724
ē	-13.3724
万	-13.3724
喆	-13.3724
便	-13.377
푀	-13.377
牌	-13.377
牟	-13.377
귓	-13.377
戴	-13.377
Α	-13.3815
湯	-13.3815
몹	-13.386
ガ	-13.3861
筵	-13.3861
槃	-13.3861
阮	-13.3861
打	-13.3861
拓	-13.3861
拳	-13.3861
潮	-13.3861
底	-13.3861
И	-13.3907
앎	-13.3907
씽	-13.3907
ه	-13.3907
杉	-13.3907
仇	-13.3907
楽	-13.3907
強	-13.3907
尋	-13.3907
梨	-13.3907
묶	-13.3924
ブ	-13.3952
メ	-13.3953
ᅵ	-13.3953
泥	-13.3953
흄	-13.3953
祝	-13.3953
默	-13.3953
彭	-13.3953
片	-13.3953
そ	-13.3953
♪	-13.3971
軌	-13.3999
쏙	-13.3999
衙	-13.3999
就	-13.3999
息	-13.4
黎	-13.4
ゃ	-13.4045
믿	-13.4065
停	-13.4092
彫	-13.4139
嫡	-13.4139
泗	-13.4186
앴	-13.4186
휜	-13.4186
禍	-13.4234
肖	-13.4234
ă	-13.4234
早	-13.4234
沢	-13.4234
랸	-13.4234
遷	-13.4235
█	-13.4281
註	-13.4281
쳇	-13.4281
ろ	-13.4281
占	-13.4281
鎌	-13.4281
討	-13.4283
抄	-13.4329
殊	-13.4329
價	-13.4329
勅	-13.4329
朔	-13.4377
햅	-13.4377
蕭	-13.4377
맺	-13.4404
昧	-13.4426
辨	-13.4426
訪	-13.4426
涅	-13.4474
額	-13.4474
뚤	-13.4474
敍	-13.4474
淡	-13.4474
蔣	-13.4474
溝	-13.4474
曉	-13.4523
넜	-13.4523
챘	-13.4523
悲	-13.4523
耆	-13.4523
탸	-13.4572
휩	-13.4572
菊	-13.4572
駿	-13.4572
虞	-13.4572
彰	-13.4572
整	-13.4621
桐	-13.4671
戌	-13.4671
渾	-13.472
災	-13.472
ş	-13.472
尚	-13.472
핫	-13.4754
捨	-13.477
穴	-13.477
丑	-13.477
複	-13.477
乃	-13.4774
賈	-13.4821
拜	-13.4821
갬	-13.4821
ư	-13.4821
∞	-13.4821
短	-13.4821
賴	-13.4821
朗	-13.4821
庸	-13.4821
着	-13.4821
뵤	-13.4871
č	-13.4871
槐	-13.4871
遍	-13.4871
換	-13.4871
扈	-13.4873
뀌	-13.4918
Н	-13.4922
●	-13.4922
뭣	-13.4922
召	-13.4922
綾	-13.4922
샅	-13.4922
鹽	-13.4973
ύ	-13.4973
ょ	-13.4973
욧	-13.4973
ᄒ	-13.4973
笠	-13.4973
砲	-13.4973
薩	-13.5024
閑	-13.5024
Г	-13.5024
航	-13.5024
Т	-13.5024
郷	-13.5024
デ	-13.5024
鎮	-13.5024
及	-13.5026
ë	-13.5076
ح	-13.5076
券	-13.5076
幢	-13.5076
鼻	-13.5076
촛	-13.5128
ふ	-13.5128
갭	-13.5128
仰	-13.5128
甁	-13.5128
셍	-13.5128
놋	-13.518
沃	-13.518
鈴	-13.518
魂	-13.518
各	-13.5181
枝	-13.5232
升	-13.5232
Đ	-13.5232
荊	-13.5232
縛	-13.5232
宴	-13.5234
י	-13.5285
ᄌ	-13.5285
熟	-13.5285
菜	-13.5285
壺	-13.5338
긱	-13.5338
쫌	-13.5338
濃	-13.5338
隋	-13.5338
걀	-13.5388
å	-13.5391
섣	-13.5391
쎈	-13.5391
Π	-13.5391
モ	-13.5391
藍	-13.5444
暴	-13.5444
悟	-13.5498
떳	-13.5498
裁	-13.5498
윔	-13.5498
幽	-13.5498
待	-13.5498
為	-13.5498
号	-13.5552
ж	-13.5552
禦	-13.5553
ダ	-13.5606
漆	-13.5606
儉	-13.5606
陜	-13.5606
苑	-13.5606
荒	-13.5606
莫	-13.5607
郵	-13.5661
履	-13.5661
范	-13.5661
供	-13.5661
除	-13.5661
迎	-13.5662
뗄	-13.5716
鉢	-13.5716
杖	-13.5717
凡	-13.5771
Σ	-13.5771
租	-13.5771
穀	-13.5771
哈	-13.5771
浚	-13.5771
豪	-13.5771
按	-13.5772
슷	-13.582
絲	-13.5827
젭	-13.5827
Á	-13.5827
Д	-13.5827
乱	-13.5827
権	-13.5827
塘	-13.5883
븀	-13.5883
奭	-13.5883
汗	-13.5883
­	-13.5883
頌	-13.5883
雷	-13.5883
耕	-13.5883
卒	-13.5884
パ	-13.5939
旭	-13.5939
ː	-13.5939
謹	-13.5939
ゆ	-13.5939
첵	-13.5939
伴	-13.5939
庾	-13.5939
沖	-13.5939
店	-13.5939
来	-13.5939
更	-13.5939
쩔	-13.5991
盡	-13.5995
姫	-13.5995
†	-13.6052
넙	-13.6052
쥰	-13.6052
悅	-13.6054
卽	-13.6055
跡	-13.6109
ず	-13.6109
蕃	-13.6109
뎠	-13.6109
쿱	-13.6109
艦	-13.6109
せ	-13.6109
遇	-13.611
荷	-13.6167
企	-13.6167
諭	-13.6225
佳	-13.6225
賣	-13.6225
ぶ	-13.6225
突	-13.6283
뺐	-13.6283
ف	-13.6283
寛	-13.6283
晴	-13.6283
砂	-13.6283
괭	-13.6283
浜	-13.6283
傑	-13.6283
э	-13.6341
ど	-13.6341
采	-13.6341
抗	-13.6342
끗	-13.64
樣	-13.64
튤	-13.64
卑	-13.64
瀬	-13.64
ワ	-13.64
쥴	-13.6459
擊	-13.6459
黒	-13.6459
係	-13.6459
垂	-13.6518
ビ	-13.6519
答	-13.6519
乳	-13.6579
奥	-13.6579
沼	-13.6579
訴	-13.658
昊	-13.6639
】	-13.6639
宙	-13.6639
烽	-13.6639
셧	-13.6639
윕	-13.6639
亡	-13.6639
被	-13.6639
培	-13.6639
播	-13.6643
珪	-13.6699
【	-13.6699
軸	-13.6699
飯	-13.6699
눙	-13.6699
屠	-13.6699
擇	-13.6699
卜	-13.6699
酸	-13.6699
側	-13.676
矢	-13.676
頃	-13.676
蔭	-13.676
謀	-13.676
黄	-13.676
輸	-13.676
兆	-13.6761
諱	-13.6822
뗀	-13.6822
뗏	-13.6822
챗	-13.6822
僞	-13.6822
薰	-13.6822
課	-13.6822
迪	-13.6822
総	-13.6822
า	-13.6822
眉	-13.6823
伝	-13.6883
빻	-13.6883
垣	-13.6883
塾	-13.6883
駕	-13.6885
ョ	-13.6945
呪	-13.6946
床	-13.6946
ˈ	-13.6946
冥	-13.6946
Κ	-13.6946
余	-13.6946
測	-13.6946
堯	-13.6946
콸	-13.7008
筑	-13.7008
陟	-13.7008
겜	-13.7008
잌	-13.7008
宏	-13.7008
席	-13.7008
勿	-13.7011
뽑	-13.703
됩	-13.707
ツ	-13.7071
肥	-13.7071
쟝	-13.7071
ق	-13.7071
馮	-13.7071
奮	-13.7071
忽	-13.7072
舒	-13.7134
껑	-13.7134
넝	-13.7134
億	-13.7135
瓦	-13.7198
梧	-13.7198
費	-13.7198
認	-13.7198
頓	-13.7198
띵	-13.7198
씰	-13.7198
잽	-13.7198
췬	-13.7198
粉	-13.7198
探	-13.7198
倍	-13.7198
↔	-13.7262
掛	-13.7262
뷜	-13.7262
펍	-13.7262
Ö	-13.7262
幼	-13.7262
髮	-13.7327
排	-13.7327
阪	-13.7327
믐	-13.7327
챤	-13.7327
獸	-13.7327
湘	-13.7391
窟	-13.7391
沿	-13.7391
Л	-13.7391
篆	-13.7391
닻	-13.7392
뎁	-13.7392
뿍	-13.7392
衝	-13.7392
云	-13.7392
聚	-13.7393
扇	-13.7456
詳	-13.7456
氷	-13.7457
炯	-13.7457
樑	-13.7457
鄧	-13.7457
꿍	-13.7457
돤	-13.7457
둣	-13.7457
몄	-13.7457
走	-13.7457
蒲	-13.7457
慰	-13.7459
セ	-13.7523
喬	-13.7523
ו	-13.7523
뷴	-13.7523
ð	-13.7523
党	-13.7523
毒	-13.7524
忘	-13.7525
婚	-13.7589
綜	-13.7589
充	-13.7589
벰	-13.7589
詔	-13.7589
含	-13.7589
坤	-13.7589
攻	-13.7592
態	-13.7656
끽	-13.7656
彈	-13.7656
驗	-13.7656
体	-13.7656
ェ	-13.7656
又	-13.7659
此	-13.7661
呼	-13.7723
緖	-13.7723
び	-13.7723
ケ	-13.779
꼿	-13.779
甄	-13.779
負	-13.779
샥	-13.779
架	-13.779
競	-13.7791
푈	-13.7858
炎	-13.7858
蜜	-13.7858
緯	-13.7858
買	-13.7858
瞻	-13.7859
鷹	-13.7861
憂	-13.7861
鏞	-13.7864
嶽	-13.7927
招	-13.7927
蟲	-13.7927
듄	-13.7927
戎	-13.7927
堀	-13.7927
応	-13.7927
伸	-13.7927
豐	-13.7996
ï	-13.7996
≤	-13.7996
暗	-13.7996
냑	-13.7996
繫	-13.7996
寇	-13.8003
ý	-13.8065
냔	-13.8065
떄	-13.8065
렷	-13.8065
꼐	-13.8065
昆	-13.8065
渓	-13.8065
爐	-13.8135
束	-13.8135
謨	-13.8135
뭍	-13.8135
О	-13.8135
渠	-13.8135
强	-13.8136
ね	-13.8205
鎔	-13.8205
겄	-13.8205
镇	-13.8206
浅	-13.8206
广	-13.8206
ほ	-13.8206
押	-13.8206
戚	-13.8206
免	-13.821
ᅡ	-13.8276
빕	-13.8276
ة	-13.8276
低	-13.8276
鉄	-13.8276
辦	-13.8276
投	-13.8276
迷	-13.8348
쉿	-13.8348
ר	-13.8348
ج	-13.8348
悌	-13.8348
韋	-13.8348
荀	-13.8348
鑄	-13.8348
参	-13.8348
網	-13.8349
諺	-13.842
拉	-13.842
核	-13.842
잴	-13.842
洗	-13.842
ヶ	-13.842
往	-13.8429
混	-13.8492
損	-13.8492
筒	-13.8492
效	-13.8494
遮	-13.8565
綏	-13.8565
違	-13.8565
訣	-13.8565
偏	-13.8565
萱	-13.8565
멎	-13.8565
왐	-13.8565
찡	-13.8565
ה	-13.8565
々	-13.8565
晶	-13.8565
顧	-13.8565
炭	-13.8567
急	-13.8568
ž	-13.8639
Ε	-13.8639
刹	-13.8639
羲	-13.8639
桑	-13.8713
浙	-13.8713
胞	-13.8713
ò	-13.8713
쫑	-13.8713
璋	-13.8713
付	-13.8713
練	-13.8713
懸	-13.8713
忌	-13.8714
←	-13.8787
왑	-13.8787
ś	-13.8787
訥	-13.8787
晦	-13.8787
燧	-13.8787
屛	-13.8788
灌	-13.8788
ᅩ	-13.8788
涉	-13.8788
괵	-13.8863
东	-13.8863
⋅	-13.8863
犬	-13.8863
已	-13.8868
ế	-13.8938
雕	-13.8938
묽	-13.8938
셤	-13.8938
吹	-13.8938
堡	-13.8938
溟	-13.8938
冷	-13.8938
綬	-13.8938
襲	-13.8938
対	-13.8939
潛	-13.9015
ァ	-13.9015
Å	-13.9015
姚	-13.9015
塵	-13.9015
揮	-13.9015
箭	-13.9015
慮	-13.9017
べ	-13.9092
î	-13.9092
쳅	-13.9092
似	-13.9092
む	-13.9092
捕	-13.9093
잊	-13.9158
ボ	-13.9169
뾰	-13.9169
只	-13.9169
أ	-13.9169
絃	-13.9169
笑	-13.9171
霞	-13.9247
阜	-13.9247
柔	-13.9247
寄	-13.9247
趣	-13.9247
鵬	-13.9248
皆	-13.925
雀	-13.9326
넹	-13.9326
땔	-13.9326
乞	-13.9326
켠	-13.9326
ی	-13.9326
幾	-13.9326
犯	-13.9329
疾	-13.9405
窯	-13.9405
斥	-13.9405
適	-13.9405
観	-13.9406
ヤ	-13.9485
裏	-13.9485
ա	-13.9485
覇	-13.9485
鳩	-13.9485
圈	-13.9485
깰	-13.9485
뺑	-13.9485
娘	-13.9485
橘	-13.9485
壓	-13.9485
斤	-13.9486
満	-13.9486
菩	-13.9566
ъ	-13.9566
ю	-13.9566
樊	-13.9566
沒	-13.9566
訟	-13.9566
ń	-13.9566
耽	-13.9566
獅	-13.9566
偉	-13.9647
傷	-13.9647
膺	-13.9647
뻤	-13.9647
蒼	-13.9647
팹	-13.9647
円	-13.9647
冀	-13.9647
へ	-13.9647
ネ	-13.9648
线	-13.9729
훠	-13.9729
索	-13.9729
쩨	-13.9729
礙	-13.9729
遣	-13.9743
翔	-13.9812
借	-13.9812
誤	-13.9812
貝	-13.9812
겅	-13.9812
帽	-13.9812
猛	-13.9812
險	-13.9812
減	-13.9812
婢	-13.9812
숑	-13.9895
彬	-13.9895
伎	-13.9979
ệ	-13.9979
旦	-13.9979
竿	-13.9979
吐	-13.9979
游	-13.9979
겉	-13.9982
纂	-14.0064
У	-14.0064
廊	-14.0064
깟	-14.0064
혓	-14.0064
栢	-14.0064
譚	-14.0064
燒	-14.0064
澈	-14.0064
綿	-14.0149
蛇	-14.0149
看	-14.015
隣	-14.015
ᄎ	-14.015
盜	-14.015
芸	-14.015
ğ	-14.015
ψ	-14.015
璿	-14.015
賤	-14.015
闕	-14.015
変	-14.015
ベ	-14.0235
峻	-14.0236
悼	-14.0236
祉	-14.0236
圃	-14.0236
げ	-14.0236
恪	-14.0236
閤	-14.0236
奧	-14.0236
ソ	-14.0323
勸	-14.0323
榜	-14.0323
瓊	-14.0323
零	-14.0323
粹	-14.0323
肩	-14.0323
灘	-14.0323
禄	-14.0323
纏	-14.0323
遵	-14.0323
弁	-14.041
ё	-14.041
َ	-14.041
쾰	-14.041
劃	-14.041
Ω	-14.041
쌩	-14.041
ơ	-14.041
廻	-14.041
銃	-14.041
挺	-14.0499
従	-14.0499
畢	-14.0499
脩	-14.0499
趾	-14.0499
뗐	-14.0499
汀	-14.0499
亀	-14.0499
姑	-14.0499
稽	-14.0499
※	-14.0511
칡	-14.0588
ě	-14.0588
暦	-14.0588
礪	-14.0588
僖	-14.0588
皐	-14.0588
羌	-14.0588
祈	-14.0588
昔	-14.0589
狄	-14.059
肇	-14.0591
屈	-14.0678
療	-14.0678
Š	-14.0678
„	-14.0678
歐	-14.0678
駒	-14.0678
쫀	-14.0678
횔	-14.0678
®	-14.0678
互	-14.0678
旋	-14.0678
瑜	-14.0678
馨	-14.0678
龐	-14.0678
幻	-14.0678
ピ	-14.0769
ŋ	-14.0769
敞	-14.0769
폿	-14.0769
ش	-14.0769
婁	-14.0769
画	-14.077
勉	-14.0771
濱	-14.0861
翟	-14.0861
א	-14.0861
邵	-14.0861
륌	-14.0861
튈	-14.0861
卦	-14.0861
珥	-14.0861
岑	-14.0861
横	-14.0861
蘆	-14.0861
閻	-14.0861
倒	-14.0861
몐	-14.0954
셩	-14.0954
ร	-14.0954
擬	-14.0954
苻	-14.0954
맸	-14.0954
竺	-14.0954
쭐	-14.0954
畠	-14.0954
祗	-14.0954
預	-14.0954
琉	-14.0954
凝	-14.0954
━	-14.1047
윷	-14.1047
냘	-14.1047
뻬	-14.1047
怡	-14.1047
滉	-14.1047
狂	-14.1047
쭝	-14.1047
遜	-14.1047
讚	-14.1047
싫	-14.1069
脚	-14.1141
畜	-14.1141
悔	-14.1141
杞	-14.1141
貿	-14.1141
볐	-14.1141
욥	-14.1141
Γ	-14.1141
ф	-14.1141
妄	-14.1141
録	-14.1141
휨	-14.1141
斬	-14.1141
曜	-14.1141
畫	-14.1141
湛	-14.1141
避	-14.1142
縱	-14.1144
衿	-14.1237
阳	-14.1237
ك	-14.1237
斎	-14.1237
琳	-14.1237
弥	-14.1237
伺	-14.1237
拔	-14.1238
ぎ	-14.1333
뻥	-14.1333
틋	-14.1333
ξ	-14.1333
塞	-14.1333
寿	-14.1333
彼	-14.1333
邸	-14.1333
郁	-14.1333
叢	-14.1333
沛	-14.1333
説	-14.1333
割	-14.1333
寵	-14.1337
湜	-14.143
謁	-14.143
힛	-14.143
廬	-14.143
飾	-14.143
揆	-14.143
漸	-14.143
閱	-14.143
快	-14.143
윽	-14.1528
鐸	-14.1528
ễ	-14.1528
斜	-14.1528
殉	-14.1528
睡	-14.1528
솁	-14.1528
쨋	-14.1528
켁	-14.1528
ゅ	-14.1528
繡	-14.1528
窩	-14.1528
圍	-14.153
予	-14.1531
聰	-14.1627
什	-14.1627
勃	-14.1627
妓	-14.1627
恵	-14.1627
渭	-14.1627
电	-14.1627
떫	-14.1627
밉	-14.1627
얜	-14.1627
晟	-14.1627
杏	-14.1627
詮	-14.1627
隅	-14.1627
顕	-14.1627
ぬ	-14.1627
燦	-14.1627
怪	-14.1727
抱	-14.1727
檜	-14.1727
棟	-14.1727
遞	-14.1727
銓	-14.1727
ù	-14.1727
紗	-14.1727
솽	-14.1727
ṭ	-14.1727
壞	-14.1727
尤	-14.1727
朋	-14.1727
棺	-14.1727
裴	-14.1727
훨	-14.2565
릎	-14.3356
곁	-14.3803
뀐	-14.3842
끊	-14.4319
걷	-14.5005
늬	-14.5161
굳	-14.5292
띄	-14.5292
깥	-14.6372
뭘	-14.7218
꾀	-14.7952
빚	-14.8953
눠	-15.175
얻	-15.2748
꽤	-15.5573
츰	-15.7044
숟	-15.7523
꺾	-15.8382
탰	-16.4015
좨	-16.4016
넸	-16.4017
갉	-16.4018
짰	-16.4019
뀜	-16.402
텼	-16.4021
탉	-16.4022
묀	-16.4023
빴	-16.4024
엷	-16.4025
옅	-16.4026
뭡	-16.4027
쐐	-16.4028
띈	-16.4029
숱	-16.403
밌	-16.4031
샀	-16.4032
딨	-16.4033
앓	-16.4034
슭	-16.4035
얹	-16.4036
짙	-16.4037
컫	-16.4038
얇	-16.4039
녔	-16.404
덟	-16.4041
짧	-16.4042
겪	-16.4043
괜	-16.4043
